unsigned char autoencoder_model_INT8_tflite[] = {
  0x1c, 0x00, 0x00, 0x00, 0x54, 0x46, 0x4c, 0x33, 0x14, 0x00, 0x20, 0x00,
  0x1c, 0x00, 0x18, 0x00, 0x14, 0x00, 0x10, 0x00, 0x0c, 0x00, 0x00, 0x00,
  0x08, 0x00, 0x04, 0x00, 0x14, 0x00, 0x00, 0x00, 0x1c, 0x00, 0x00, 0x00,
  0x90, 0x00, 0x00, 0x00, 0x08, 0x01, 0x00, 0x00, 0x44, 0x12, 0x00, 0x00,
  0x54, 0x12, 0x00, 0x00, 0xc8, 0x4b, 0x00, 0x00, 0x03, 0x00, 0x00, 0x00,
  0x01, 0x00, 0x00, 0x00, 0x04, 0x00, 0x00, 0x00, 0x5a, 0xe7, 0xff, 0xff,
  0x0c, 0x00, 0x00, 0x00, 0x1c, 0x00, 0x00, 0x00, 0x3c, 0x00, 0x00, 0x00,
  0x0f, 0x00, 0x00, 0x00, 0x73, 0x65, 0x72, 0x76, 0x69, 0x6e, 0x67, 0x5f,
  0x64, 0x65, 0x66, 0x61, 0x75, 0x6c, 0x74, 0x00, 0x01, 0x00, 0x00, 0x00,
  0x04, 0x00, 0x00, 0x00, 0x50, 0xec, 0xff, 0xff, 0x3e, 0x00, 0x00, 0x00,
  0x04, 0x00, 0x00, 0x00, 0x08, 0x00, 0x00, 0x00, 0x6f, 0x75, 0x74, 0x70,
  0x75, 0x74, 0x5f, 0x30, 0x00, 0x00, 0x00, 0x00, 0x01, 0x00, 0x00, 0x00,
  0x04, 0x00, 0x00, 0x00, 0x56, 0xe9, 0xff, 0xff, 0x04, 0x00, 0x00, 0x00,
  0x10, 0x00, 0x00, 0x00, 0x6b, 0x65, 0x72, 0x61, 0x73, 0x5f, 0x74, 0x65,
  0x6e, 0x73, 0x6f, 0x72, 0x5f, 0x31, 0x31, 0x36, 0x00, 0x00, 0x00, 0x00,
  0x03, 0x00, 0x00, 0x00, 0x54, 0x00, 0x00, 0x00, 0x2c, 0x00, 0x00, 0x00,
  0x04, 0x00, 0x00, 0x00, 0xa4, 0xec, 0xff, 0xff, 0x42, 0x00, 0x00, 0x00,
  0x04, 0x00, 0x00, 0x00, 0x13, 0x00, 0x00, 0x00, 0x43, 0x4f, 0x4e, 0x56,
  0x45, 0x52, 0x53, 0x49, 0x4f, 0x4e, 0x5f, 0x4d, 0x45, 0x54, 0x41, 0x44,
  0x41, 0x54, 0x41, 0x00, 0xc8, 0xec, 0xff, 0xff, 0x41, 0x00, 0x00, 0x00,
  0x04, 0x00, 0x00, 0x00, 0x13, 0x00, 0x00, 0x00, 0x6d, 0x69, 0x6e, 0x5f,
  0x72, 0x75, 0x6e, 0x74, 0x69, 0x6d, 0x65, 0x5f, 0x76, 0x65, 0x72, 0x73,
  0x69, 0x6f, 0x6e, 0x00, 0xec, 0xec, 0xff, 0xff, 0x40, 0x00, 0x00, 0x00,
  0x04, 0x00, 0x00, 0x00, 0x13, 0x00, 0x00, 0x00, 0x6d, 0x69, 0x6e, 0x5f,
  0x72, 0x75, 0x6e, 0x74, 0x69, 0x6d, 0x65, 0x5f, 0x76, 0x65, 0x72, 0x73,
  0x69, 0x6f, 0x6e, 0x00, 0x43, 0x00, 0x00, 0x00, 0x38, 0x11, 0x00, 0x00,
  0x30, 0x11, 0x00, 0x00, 0x1c, 0x11, 0x00, 0x00, 0x00, 0x11, 0x00, 0x00,
  0xe8, 0x10, 0x00, 0x00, 0xd4, 0x10, 0x00, 0x00, 0xc0, 0x10, 0x00, 0x00,
  0xac, 0x10, 0x00, 0x00, 0x98, 0x10, 0x00, 0x00, 0x80, 0x10, 0x00, 0x00,
  0x78, 0x10, 0x00, 0x00, 0x5c, 0x10, 0x00, 0x00, 0x44, 0x10, 0x00, 0x00,
  0x28, 0x10, 0x00, 0x00, 0x0c, 0x10, 0x00, 0x00, 0xf0, 0x0f, 0x00, 0x00,
  0xd4, 0x0f, 0x00, 0x00, 0xb8, 0x0f, 0x00, 0x00, 0xa4, 0x0f, 0x00, 0x00,
  0x9c, 0x0f, 0x00, 0x00, 0x5c, 0x0f, 0x00, 0x00, 0x0c, 0x0f, 0x00, 0x00,
  0x7c, 0x0d, 0x00, 0x00, 0x4c, 0x0d, 0x00, 0x00, 0x7c, 0x0c, 0x00, 0x00,
  0xcc, 0x0a, 0x00, 0x00, 0x7c, 0x07, 0x00, 0x00, 0x4c, 0x07, 0x00, 0x00,
  0xfc, 0x03, 0x00, 0x00, 0xcc, 0x03, 0x00, 0x00, 0x3c, 0x02, 0x00, 0x00,
  0xec, 0x01, 0x00, 0x00, 0xac, 0x01, 0x00, 0x00, 0xa4, 0x01, 0x00, 0x00,
  0x9c, 0x01, 0x00, 0x00, 0x94, 0x01, 0x00, 0x00, 0x8c, 0x01, 0x00, 0x00,
  0x84, 0x01, 0x00, 0x00, 0x7c, 0x01, 0x00, 0x00, 0x74, 0x01, 0x00, 0x00,
  0x6c, 0x01, 0x00, 0x00, 0x64, 0x01, 0x00, 0x00, 0x5c, 0x01, 0x00, 0x00,
  0x54, 0x01, 0x00, 0x00, 0x4c, 0x01, 0x00, 0x00, 0x44, 0x01, 0x00, 0x00,
  0x3c, 0x01, 0x00, 0x00, 0x34, 0x01, 0x00, 0x00, 0x2c, 0x01, 0x00, 0x00,
  0x24, 0x01, 0x00, 0x00, 0x1c, 0x01, 0x00, 0x00, 0x14, 0x01, 0x00, 0x00,
  0x0c, 0x01, 0x00, 0x00, 0x04, 0x01, 0x00, 0x00, 0xfc, 0x00, 0x00, 0x00,
  0xf4, 0x00, 0x00, 0x00, 0xec, 0x00, 0x00, 0x00, 0xe4, 0x00, 0x00, 0x00,
  0xdc, 0x00, 0x00, 0x00, 0xd4, 0x00, 0x00, 0x00, 0xcc, 0x00, 0x00, 0x00,
  0xc4, 0x00, 0x00, 0x00, 0xbc, 0x00, 0x00, 0x00, 0xb4, 0x00, 0x00, 0x00,
  0x94, 0x00, 0x00, 0x00, 0x74, 0x00, 0x00, 0x00, 0x04, 0x00, 0x00, 0x00,
  0x02, 0xeb, 0xff, 0xff, 0x04, 0x00, 0x00, 0x00, 0x60, 0x00, 0x00, 0x00,
  0x0c, 0x00, 0x00, 0x00, 0x08, 0x00, 0x0e, 0x00, 0x08, 0x00, 0x04, 0x00,
  0x08, 0x00, 0x00, 0x00, 0x10, 0x00, 0x00, 0x00, 0x28, 0x00, 0x00, 0x00,
  0x00, 0x00, 0x06, 0x00, 0x08, 0x00, 0x04, 0x00, 0x06, 0x00, 0x00, 0x00,
  0x04, 0x00, 0x00, 0x00, 0x01, 0x00, 0x00, 0x00, 0xeb, 0x03, 0x00, 0x00,
  0x0c, 0x00, 0x18, 0x00, 0x14, 0x00, 0x10, 0x00, 0x0c, 0x00, 0x04, 0x00,
  0x0c, 0x00, 0x00, 0x00, 0xbb, 0x62, 0xa9, 0xeb, 0xbe, 0x08, 0x4c, 0xb1,
  0x02, 0x00, 0x00, 0x00, 0x02, 0x00, 0x00, 0x00, 0x04, 0x00, 0x00, 0x00,
  0x06, 0x00, 0x00, 0x00, 0x32, 0x2e, 0x31, 0x38, 0x2e, 0x30, 0x00, 0x00,
  0x6e, 0xeb, 0xff, 0xff, 0x04, 0x00, 0x00, 0x00, 0x10, 0x00, 0x00, 0x00,
  0x00, 0x00, 0x00, 0x00, 0x00, 0x00, 0x00, 0x00, 0x00, 0x00, 0x00, 0x00,
  0x00, 0x00, 0x00, 0x00, 0x8a, 0xeb, 0xff, 0xff, 0x04, 0x00, 0x00, 0x00,
  0x10, 0x00, 0x00, 0x00, 0x32, 0x2e, 0x31, 0x33, 0x2e, 0x30, 0x00, 0x00,
  0x00, 0x00, 0x00, 0x00, 0x00, 0x00, 0x00, 0x00, 0xb8, 0xb7, 0xff, 0xff,
  0xbc, 0xb7, 0xff, 0xff, 0xc0, 0xb7, 0xff, 0xff, 0xc4, 0xb7, 0xff, 0xff,
  0xc8, 0xb7, 0xff, 0xff, 0xcc, 0xb7, 0xff, 0xff, 0xd0, 0xb7, 0xff, 0xff,
  0xd4, 0xb7, 0xff, 0xff, 0xd8, 0xb7, 0xff, 0xff, 0xdc, 0xb7, 0xff, 0xff,
  0xe0, 0xb7, 0xff, 0xff, 0xe4, 0xb7, 0xff, 0xff, 0xe8, 0xb7, 0xff, 0xff,
  0xec, 0xb7, 0xff, 0xff, 0xf0, 0xb7, 0xff, 0xff, 0xf4, 0xb7, 0xff, 0xff,
  0xf8, 0xb7, 0xff, 0xff, 0xfc, 0xb7, 0xff, 0xff, 0x00, 0xb8, 0xff, 0xff,
  0x04, 0xb8, 0xff, 0xff, 0x08, 0xb8, 0xff, 0xff, 0x0c, 0xb8, 0xff, 0xff,
  0x10, 0xb8, 0xff, 0xff, 0x14, 0xb8, 0xff, 0xff, 0x18, 0xb8, 0xff, 0xff,
  0x1c, 0xb8, 0xff, 0xff, 0x20, 0xb8, 0xff, 0xff, 0x24, 0xb8, 0xff, 0xff,
  0x28, 0xb8, 0xff, 0xff, 0x2c, 0xb8, 0xff, 0xff, 0x30, 0xb8, 0xff, 0xff,
  0x22, 0xec, 0xff, 0xff, 0x04, 0x00, 0x00, 0x00, 0x30, 0x00, 0x00, 0x00,
  0xba, 0x3d, 0x7f, 0x81, 0x35, 0xed, 0x77, 0xf0, 0x81, 0x93, 0x51, 0x81,
  0x3f, 0x81, 0x6d, 0x81, 0x1e, 0xaa, 0x39, 0x7f, 0x3f, 0xd9, 0x88, 0x7f,
  0x7f, 0x19, 0x10, 0xd8, 0x7f, 0xaf, 0x22, 0x8f, 0x81, 0x4c, 0x81, 0x2e,
  0x81, 0x37, 0x18, 0xf9, 0x9e, 0x7f, 0x8e, 0x61, 0x81, 0xa4, 0x40, 0x7f,
  0x5e, 0xec, 0xff, 0xff, 0x04, 0x00, 0x00, 0x00, 0x40, 0x00, 0x00, 0x00,
  0x86, 0x36, 0x00, 0x00, 0x86, 0x2b, 0x00, 0x00, 0xa5, 0x9c, 0x00, 0x00,
  0x9c, 0x16, 0x00, 0x00, 0xb8, 0x51, 0x00, 0x00, 0xe9, 0x11, 0x00, 0x00,
  0xe7, 0xae, 0xff, 0xff, 0xfa, 0x60, 0x00, 0x00, 0x56, 0x42, 0x00, 0x00,
  0x9b, 0x63, 0x00, 0x00, 0x0c, 0x25, 0x00, 0x00, 0x89, 0x5d, 0x00, 0x00,
  0x79, 0x6b, 0x00, 0x00, 0xc4, 0x08, 0x00, 0x00, 0xa6, 0xfa, 0x00, 0x00,
  0xca, 0x1e, 0x00, 0x00, 0xaa, 0xec, 0xff, 0xff, 0x04, 0x00, 0x00, 0x00,
  0x80, 0x01, 0x00, 0x00, 0x4a, 0xe6, 0x2d, 0xf2, 0xda, 0x9b, 0x23, 0xdc,
  0x6a, 0x3d, 0xc8, 0xf8, 0x21, 0x31, 0xe8, 0xbf, 0x5f, 0x17, 0x0d, 0x05,
  0xc9, 0xd6, 0x29, 0x71, 0x21, 0x7f, 0x38, 0x56, 0x28, 0xcd, 0x0e, 0xbe,
  0xb6, 0xef, 0xf0, 0x1b, 0xfd, 0xdd, 0xa6, 0x46, 0x0b, 0x7e, 0xe5, 0x3d,
  0x21, 0x44, 0x47, 0xf1, 0xee, 0xe3, 0x45, 0xd4, 0xfb, 0x95, 0xff, 0x49,
  0xc2, 0x0c, 0x49, 0xe7, 0x44, 0x88, 0x36, 0x14, 0xf5, 0xec, 0xe9, 0x3a,
  0x3b, 0xe6, 0x54, 0x21, 0xd9, 0x7f, 0x20, 0x70, 0x95, 0xd4, 0x3b, 0x38,
  0xad, 0x2b, 0xdd, 0x51, 0x62, 0x9c, 0x0f, 0xe1, 0x5e, 0x05, 0x52, 0x25,
  0xd7, 0xab, 0xf1, 0x41, 0x64, 0x9f, 0xd0, 0x81, 0x05, 0x3b, 0x3b, 0xa5,
  0xe9, 0xd6, 0x43, 0xd4, 0x84, 0xa5, 0x99, 0x2b, 0x6b, 0x05, 0x39, 0xf0,
  0xfa, 0x3d, 0xbf, 0xc4, 0x07, 0x18, 0x66, 0xec, 0xa8, 0x19, 0xad, 0xd0,
  0x40, 0xc2, 0xd0, 0xc1, 0x03, 0x0c, 0x75, 0xbf, 0xe2, 0x0f, 0x5a, 0x60,
  0xcd, 0xf3, 0xaa, 0xe9, 0x1b, 0xc1, 0x2c, 0x12, 0xba, 0x91, 0xb4, 0x27,
  0x56, 0x06, 0x40, 0x2c, 0x39, 0x5f, 0x7f, 0x55, 0x56, 0xa8, 0xf1, 0x4a,
  0x1a, 0xa1, 0xb8, 0x62, 0x19, 0x2a, 0xe1, 0xe4, 0x67, 0xaa, 0xba, 0xc8,
  0x7d, 0xf6, 0x36, 0x6b, 0x5c, 0x61, 0x6a, 0xe7, 0x3e, 0xeb, 0x73, 0x02,
  0x3d, 0xc6, 0xb3, 0xe1, 0x04, 0x49, 0x60, 0xb9, 0xff, 0xe4, 0xcd, 0xcc,
  0x19, 0x0f, 0x27, 0xf5, 0xc6, 0x33, 0x0c, 0x4d, 0x1d, 0xb0, 0x1b, 0x81,
  0xf3, 0x2b, 0x5a, 0x25, 0xda, 0xf3, 0x84, 0xea, 0x41, 0xf8, 0xef, 0x0c,
  0x5e, 0x07, 0x2d, 0x0c, 0xe5, 0xed, 0xe3, 0xd5, 0x4b, 0xc3, 0x12, 0x54,
  0x22, 0xd3, 0xfa, 0x24, 0x36, 0x1d, 0x49, 0xe8, 0x41, 0xf3, 0x87, 0xf4,
  0xd8, 0x4f, 0x07, 0xf3, 0x4e, 0xd7, 0x15, 0x9d, 0x62, 0x60, 0x70, 0x3f,
  0x34, 0x81, 0x0b, 0xf1, 0x55, 0xbd, 0xda, 0x59, 0x5d, 0x03, 0x66, 0x98,
  0xa0, 0x05, 0x3f, 0xb3, 0xb0, 0xab, 0xc8, 0x7a, 0xc7, 0xcc, 0xc2, 0x8c,
  0x4b, 0xec, 0x16, 0xce, 0xe1, 0x58, 0xac, 0x3d, 0x07, 0x7d, 0x96, 0x57,
  0xdc, 0x5a, 0x5d, 0x05, 0x09, 0x0a, 0x49, 0xf7, 0xe8, 0x7f, 0x65, 0x57,
  0x6e, 0xdd, 0xb6, 0xae, 0x36, 0xca, 0x4c, 0xd4, 0xf9, 0x3e, 0x16, 0xdb,
  0x54, 0x66, 0xd1, 0xce, 0x68, 0xf3, 0xc6, 0x1d, 0x6d, 0x2e, 0x2a, 0xed,
  0xd0, 0xc2, 0xd9, 0x01, 0x27, 0x4c, 0x7f, 0xb6, 0x2c, 0x46, 0xcb, 0x0f,
  0xe9, 0xd0, 0xc0, 0x1e, 0x1d, 0x15, 0x10, 0x15, 0xc1, 0x65, 0xea, 0xdc,
  0x2d, 0x61, 0xe4, 0xfb, 0x58, 0x3c, 0x37, 0x54, 0xfa, 0x3b, 0x57, 0x1a,
  0x6a, 0xe4, 0x57, 0x2d, 0x0f, 0x48, 0xcc, 0x25, 0xd5, 0x2e, 0x34, 0xe7,
  0xdb, 0x06, 0x57, 0x37, 0x36, 0xee, 0xff, 0xff, 0x04, 0x00, 0x00, 0x00,
  0x20, 0x00, 0x00, 0x00, 0x3a, 0x4c, 0x00, 0x00, 0x4e, 0x48, 0x00, 0x00,
  0x14, 0x38, 0x00, 0x00, 0xdc, 0x4b, 0x00, 0x00, 0x44, 0x39, 0x00, 0x00,
  0x57, 0x52, 0x00, 0x00, 0x7e, 0x5c, 0x00, 0x00, 0xd4, 0x46, 0x00, 0x00,
  0x62, 0xee, 0xff, 0xff, 0x04, 0x00, 0x00, 0x00, 0x40, 0x03, 0x00, 0x00,
  0xfe, 0x1b, 0xee, 0x69, 0xe4, 0x53, 0x57, 0xdb, 0xf3, 0xde, 0xdd, 0x09,
  0x4f, 0x64, 0xd4, 0x41, 0x5d, 0xf5, 0x06, 0x58, 0x0d, 0xf7, 0x06, 0x34,
  0x30, 0x64, 0x24, 0xef, 0x34, 0x7f, 0xdd, 0xff, 0xf4, 0x06, 0x19, 0xce,
  0x36, 0x26, 0x5c, 0x5c, 0x3b, 0x66, 0x3f, 0xfd, 0xf9, 0xf6, 0x08, 0x09,
  0x50, 0x43, 0x4c, 0x38, 0xd5, 0x24, 0x07, 0x43, 0x64, 0xe9, 0x2e, 0x21,
  0xd3, 0x47, 0x00, 0xf6, 0x5f, 0x32, 0x18, 0x1c, 0x3d, 0x30, 0x41, 0x44,
  0x67, 0xd1, 0x54, 0x34, 0x46, 0x61, 0x28, 0x55, 0xe8, 0xe3, 0xcc, 0x26,
  0xdf, 0x14, 0x24, 0xca, 0x21, 0xe6, 0xdb, 0xe7, 0x24, 0x1c, 0xe1, 0x54,
  0x1e, 0x37, 0x15, 0x0d, 0xb5, 0xf0, 0xee, 0x34, 0x07, 0x23, 0x4f, 0x0b,
  0x5d, 0x47, 0x36, 0x5c, 0x16, 0x21, 0xd6, 0xf8, 0x42, 0x2e, 0xf5, 0x44,
  0x03, 0xf6, 0x0c, 0x1a, 0x00, 0xe9, 0x05, 0x04, 0xe0, 0xde, 0x2b, 0x1d,
  0xfc, 0x7f, 0x1c, 0x43, 0x31, 0x25, 0xe0, 0x49, 0xd1, 0x59, 0x2e, 0x3e,
  0x55, 0x10, 0xf6, 0x52, 0xd3, 0xf7, 0x12, 0x10, 0x3f, 0x4b, 0x2d, 0x50,
  0x53, 0x56, 0x30, 0x30, 0xf4, 0xd9, 0xd8, 0x42, 0xee, 0x47, 0x0a, 0xde,
  0x34, 0x07, 0x3e, 0xf7, 0x30, 0x3d, 0x0a, 0x67, 0x44, 0xd7, 0xfe, 0x10,
  0xc5, 0x2b, 0xdb, 0x4b, 0x30, 0x54, 0x47, 0x0b, 0xd3, 0x47, 0xdd, 0x25,
  0x22, 0x1c, 0xcc, 0x15, 0xa6, 0xe1, 0x0d, 0x14, 0x5b, 0x40, 0x3a, 0x43,
  0x40, 0x4c, 0x4a, 0x0b, 0x1d, 0xff, 0xe2, 0x32, 0xfb, 0x12, 0xd5, 0xf7,
  0xf3, 0xde, 0x40, 0x31, 0x43, 0x7f, 0x1e, 0x00, 0x23, 0x02, 0xf4, 0x25,
  0xef, 0x28, 0x00, 0xe3, 0xda, 0xda, 0xe5, 0xfe, 0x1f, 0x3c, 0x1d, 0x41,
  0x09, 0xcc, 0x4c, 0x4b, 0x0f, 0x2e, 0x12, 0xcf, 0x2f, 0x32, 0xda, 0x34,
  0xbb, 0x33, 0x39, 0xe9, 0x64, 0x55, 0x08, 0xeb, 0x4e, 0x22, 0x4c, 0x1d,
  0x59, 0x31, 0x1d, 0x42, 0xd4, 0x31, 0x43, 0xe3, 0x4a, 0x52, 0x2a, 0x2b,
  0x30, 0x04, 0x2d, 0x4a, 0xf9, 0x3f, 0x06, 0x47, 0xd8, 0x76, 0xf4, 0x38,
  0x37, 0x1a, 0x25, 0x0c, 0x22, 0xf4, 0x1c, 0xdd, 0x6c, 0xe7, 0x1a, 0x4c,
  0xca, 0x39, 0x32, 0x06, 0x2a, 0x42, 0x03, 0xfb, 0xf5, 0xe7, 0xfe, 0xfc,
  0xd0, 0x61, 0x87, 0x61, 0x58, 0x13, 0xf4, 0x86, 0xcd, 0xb2, 0xc4, 0x45,
  0x9a, 0xef, 0x37, 0x2c, 0x60, 0xac, 0x2c, 0x5e, 0x42, 0x6c, 0x02, 0xd9,
  0x94, 0x62, 0x85, 0xef, 0xc9, 0x4b, 0x0c, 0x9a, 0x22, 0x88, 0x4f, 0x48,
  0xe8, 0x22, 0x27, 0x61, 0x2e, 0x91, 0x94, 0x53, 0x05, 0x89, 0x38, 0xc7,
  0x12, 0xd3, 0xa3, 0xb4, 0xe4, 0xe6, 0xa9, 0x52, 0x29, 0x33, 0x90, 0xbf,
  0x51, 0x6a, 0x8d, 0xf6, 0xde, 0x83, 0x32, 0x03, 0xe5, 0xfd, 0x1c, 0xd4,
  0x37, 0x37, 0x38, 0x8a, 0xf6, 0xff, 0x60, 0x21, 0xee, 0x5c, 0xb9, 0x99,
  0x8b, 0x92, 0x05, 0x2f, 0xa9, 0x1e, 0x4b, 0xe3, 0xc6, 0xf8, 0xa8, 0xa1,
  0xbc, 0x27, 0xb2, 0x31, 0x3b, 0x45, 0x9e, 0x81, 0x78, 0x0e, 0x32, 0x44,
  0x01, 0x1d, 0xe6, 0x6b, 0xfc, 0x23, 0x51, 0x5e, 0x29, 0x6a, 0xd6, 0x15,
  0x09, 0x23, 0xe0, 0x4e, 0xd5, 0x0e, 0x27, 0xe4, 0x3f, 0xfd, 0xed, 0x1b,
  0xbd, 0x4c, 0xe0, 0x0d, 0x3d, 0x23, 0x1d, 0xfb, 0xfc, 0x2b, 0xfa, 0x03,
  0x3f, 0xd7, 0xd9, 0xd7, 0x24, 0xe7, 0x00, 0x2c, 0x41, 0x7c, 0xe6, 0xe0,
  0x1c, 0xfd, 0x57, 0x49, 0xfc, 0x57, 0x02, 0x42, 0xe2, 0xfd, 0xe8, 0x16,
  0x31, 0x45, 0xf1, 0xd0, 0x11, 0x23, 0x77, 0xe1, 0x63, 0x0b, 0xff, 0x5a,
  0xd4, 0x6d, 0x11, 0xfe, 0x5a, 0x1f, 0xeb, 0x50, 0xef, 0x3d, 0x44, 0xeb,
  0x7f, 0xfc, 0x16, 0x53, 0x1b, 0x4b, 0x42, 0x45, 0x4e, 0x3d, 0x12, 0x0c,
  0xd0, 0x37, 0xe4, 0xda, 0x28, 0x8a, 0x3d, 0xd4, 0x79, 0x3d, 0x3c, 0x06,
  0x0e, 0xef, 0x92, 0x98, 0xbb, 0xfb, 0x0c, 0x34, 0xb8, 0x1f, 0xaa, 0xfa,
  0x40, 0xa6, 0xfb, 0x28, 0x65, 0x6f, 0x46, 0x7a, 0xc9, 0x03, 0x9a, 0xb2,
  0x4b, 0x03, 0x6d, 0x6b, 0xc1, 0x81, 0x57, 0x97, 0x96, 0x1d, 0x88, 0xfd,
  0xe3, 0xcc, 0xf8, 0xaa, 0x23, 0xf0, 0x0b, 0x28, 0x25, 0x51, 0x88, 0x84,
  0xa7, 0x45, 0x2d, 0x24, 0x00, 0x48, 0xdb, 0x2f, 0xdf, 0x75, 0x92, 0xc2,
  0x98, 0x3e, 0x4e, 0x25, 0xce, 0xea, 0xc2, 0x75, 0x17, 0x83, 0x9c, 0x6c,
  0x95, 0x7a, 0x63, 0x39, 0x9f, 0x10, 0x8a, 0x49, 0xc4, 0x1c, 0x0d, 0xe4,
  0x88, 0xd7, 0xe9, 0x92, 0x31, 0xbe, 0x8a, 0x95, 0x44, 0x30, 0x02, 0xbd,
  0x3e, 0x45, 0xed, 0x11, 0x12, 0x00, 0x43, 0xe7, 0x17, 0x11, 0x0f, 0x2a,
  0x2b, 0x21, 0x0b, 0x11, 0xe2, 0xfb, 0xe0, 0x29, 0x1f, 0x3e, 0x08, 0x2a,
  0x45, 0x29, 0xd2, 0x13, 0x1e, 0x38, 0x19, 0x2f, 0xe9, 0x18, 0x44, 0xd4,
  0xcd, 0x24, 0xe9, 0x4b, 0x10, 0x28, 0x13, 0xda, 0xe2, 0xe6, 0x0c, 0x4f,
  0x54, 0x28, 0x0a, 0x3d, 0x0f, 0x50, 0x0f, 0xe9, 0x50, 0x3e, 0x48, 0x46,
  0xd5, 0x4d, 0x09, 0x48, 0x29, 0xee, 0x14, 0xeb, 0x52, 0x33, 0x34, 0x1e,
  0x57, 0x28, 0x1f, 0x23, 0x29, 0x71, 0x2a, 0x03, 0xec, 0x3f, 0x0c, 0xd8,
  0x3c, 0x4f, 0x21, 0x14, 0x41, 0xda, 0xdc, 0x34, 0x12, 0x08, 0x2a, 0x26,
  0x2c, 0x7f, 0x4d, 0xef, 0x46, 0x11, 0x21, 0x25, 0x2e, 0x91, 0x43, 0x42,
  0xde, 0x54, 0xee, 0xdc, 0x55, 0x37, 0xac, 0x45, 0x9a, 0xb2, 0x28, 0x15,
  0x09, 0x55, 0xf6, 0xfd, 0xff, 0x1c, 0xaa, 0xa2, 0x87, 0x12, 0xe4, 0x85,
  0x04, 0xfb, 0x35, 0xa7, 0x48, 0xd5, 0xcc, 0xd7, 0x51, 0xd8, 0x01, 0x03,
  0xfc, 0x2f, 0xe1, 0x31, 0x12, 0x92, 0x85, 0x39, 0x34, 0xf5, 0x18, 0xab,
  0x81, 0xaf, 0xb2, 0xfd, 0x2d, 0x0c, 0x27, 0xf1, 0xd0, 0xe3, 0xb2, 0x1a,
  0x0a, 0x56, 0xef, 0x56, 0x1c, 0x87, 0xd2, 0x53, 0x51, 0x36, 0x58, 0x4c,
  0x33, 0xd8, 0x14, 0x32, 0xf8, 0xea, 0x2d, 0x2f, 0x4c, 0x55, 0x5b, 0xeb,
  0x07, 0x58, 0xf4, 0x58, 0x05, 0x1b, 0x8e, 0xdf, 0xa0, 0xdc, 0x45, 0x3d,
  0x2e, 0xe0, 0xdb, 0xde, 0xae, 0xf1, 0xff, 0xff, 0x04, 0x00, 0x00, 0x00,
  0x20, 0x00, 0x00, 0x00, 0x22, 0x2f, 0x00, 0x00, 0x1b, 0x2d, 0x00, 0x00,
  0xcb, 0x23, 0x00, 0x00, 0x6f, 0xf0, 0xff, 0xff, 0x15, 0x29, 0x00, 0x00,
  0x76, 0xfb, 0xff, 0xff, 0x17, 0x1d, 0x00, 0x00, 0x02, 0xf3, 0xff, 0xff,
  0xda, 0xf1, 0xff, 0xff, 0x04, 0x00, 0x00, 0x00, 0x40, 0x03, 0x00, 0x00,
  0xce, 0x68, 0x81, 0x66, 0xda, 0xe9, 0x89, 0xa0, 0x64, 0xfc, 0xe6, 0xc2,
  0xe2, 0x7f, 0xab, 0xd1, 0x29, 0x0f, 0x03, 0xc7, 0xb9, 0x95, 0x7f, 0x2e,
  0x4a, 0x64, 0x7f, 0x70, 0xd9, 0x02, 0x65, 0x39, 0x98, 0x7f, 0xcc, 0x61,
  0x6a, 0xeb, 0x05, 0xe6, 0x92, 0x75, 0xe2, 0x79, 0xc2, 0xf0, 0x81, 0x03,
  0xb4, 0x2d, 0x4c, 0xc1, 0xb8, 0x1e, 0x7f, 0x10, 0x4f, 0x20, 0x7f, 0x18,
  0xe8, 0x52, 0xd0, 0xd8, 0x7f, 0x87, 0x61, 0xbe, 0x67, 0x0f, 0x17, 0x1a,
  0xb5, 0x92, 0x70, 0x10, 0xea, 0x7f, 0xe1, 0x06, 0x50, 0x28, 0x7f, 0x59,
  0x7a, 0x60, 0x4a, 0x35, 0xe9, 0xb6, 0x69, 0xd1, 0x7f, 0xd2, 0x5f, 0x21,
  0x7f, 0x7a, 0x1f, 0x52, 0xf7, 0x29, 0x77, 0x0e, 0xf4, 0xe9, 0x7f, 0xce,
  0x4e, 0x40, 0x64, 0xc4, 0xe4, 0xf2, 0x32, 0xf1, 0x0b, 0x7f, 0xe4, 0x3c,
  0x81, 0xe1, 0x8b, 0xae, 0x0a, 0x03, 0xae, 0x69, 0x0d, 0x6a, 0x3b, 0x1c,
  0x7f, 0xc6, 0x1b, 0x3c, 0xbc, 0x2a, 0x6f, 0x97, 0x81, 0x5d, 0xc0, 0x44,
  0x67, 0x7f, 0x39, 0x3a, 0x41, 0x03, 0x36, 0x07, 0x4b, 0x0d, 0xb0, 0xbd,
  0x7f, 0x11, 0x3f, 0xef, 0x3c, 0xc3, 0xdf, 0x81, 0x6b, 0x79, 0x8e, 0xd6,
  0x7e, 0xa4, 0x81, 0x50, 0x18, 0x6f, 0xd7, 0x74, 0x81, 0x03, 0x1c, 0xac,
  0x95, 0x6a, 0x49, 0xa8, 0x3e, 0x7f, 0xfd, 0xc6, 0x5b, 0x4b, 0xe1, 0x64,
  0x7f, 0x39, 0x6d, 0xfb, 0x4d, 0xca, 0xaf, 0x4e, 0x4a, 0x43, 0x7f, 0x13,
  0x3d, 0x53, 0x54, 0x25, 0x81, 0xae, 0xbc, 0xce, 0x2e, 0xf3, 0x1e, 0x86,
  0xd7, 0x78, 0x7b, 0x76, 0x7f, 0x7b, 0x0d, 0xfb, 0xad, 0x36, 0x13, 0x56,
  0xf0, 0x54, 0x7f, 0x58, 0xcd, 0x05, 0x81, 0x60, 0x0d, 0xf9, 0x6b, 0xff,
  0x07, 0x19, 0x81, 0x5a, 0xe2, 0x4b, 0x42, 0x45, 0x75, 0xf5, 0xb5, 0x81,
  0xbb, 0xe1, 0x9b, 0xce, 0x10, 0x81, 0x8a, 0x60, 0xb2, 0x45, 0x25, 0xf1,
  0x22, 0x7f, 0xea, 0xcc, 0x39, 0xb5, 0xde, 0xc0, 0x10, 0x0d, 0x56, 0x81,
  0x40, 0xc8, 0x45, 0x44, 0x83, 0x09, 0x81, 0xdf, 0xa7, 0x50, 0x2b, 0x51,
  0x33, 0x21, 0xe3, 0xdf, 0x17, 0x8b, 0xa4, 0x81, 0xf0, 0xd6, 0x90, 0x8d,
  0x7f, 0xd5, 0xf5, 0x3a, 0x7f, 0xc1, 0x8a, 0xae, 0xf8, 0x13, 0x06, 0x5a,
  0x8a, 0x81, 0x29, 0x88, 0x55, 0x67, 0x12, 0xec, 0x76, 0x72, 0xc6, 0x88,
  0xef, 0x36, 0x81, 0x02, 0x3e, 0x38, 0xb1, 0x67, 0x6f, 0x7f, 0xec, 0xa6,
  0x67, 0x87, 0x08, 0xfd, 0x9c, 0x81, 0x8a, 0x81, 0xdc, 0xbf, 0x9c, 0x7f,
  0xf1, 0x59, 0x15, 0x01, 0xe5, 0x55, 0xef, 0x78, 0xf6, 0x5c, 0x81, 0x4c,
  0x9d, 0xac, 0xe3, 0x7f, 0x1b, 0xe0, 0x9c, 0x5c, 0x1c, 0xdb, 0x37, 0xc0,
  0x2a, 0x39, 0x81, 0x4e, 0x39, 0x39, 0x38, 0xba, 0x81, 0x0c, 0xda, 0x23,
  0x08, 0x73, 0xdd, 0x4c, 0x69, 0x90, 0xfa, 0x81, 0x56, 0x81, 0xcb, 0x1e,
  0x9b, 0xfe, 0xe8, 0x42, 0x7f, 0xc4, 0x83, 0x67, 0x6b, 0x49, 0xb2, 0x45,
  0x37, 0xe7, 0x93, 0x6c, 0x55, 0xa8, 0xda, 0x7f, 0x1f, 0x8c, 0x9e, 0x36,
  0x7f, 0x55, 0x54, 0xc1, 0x8f, 0xdb, 0x40, 0x7a, 0x70, 0x7f, 0xb8, 0xef,
  0xff, 0x61, 0x76, 0x81, 0x5b, 0x61, 0x42, 0xc6, 0x35, 0x68, 0x74, 0xaa,
  0x5a, 0xce, 0xd5, 0x81, 0xe4, 0x81, 0xb9, 0xc4, 0x00, 0x57, 0x87, 0xc8,
  0xb3, 0x28, 0x51, 0x14, 0xb4, 0x6f, 0x81, 0xcf, 0x9f, 0x7d, 0xcb, 0x6f,
  0xf9, 0xed, 0xcc, 0x81, 0xf4, 0x0d, 0x9e, 0x41, 0x7f, 0x8a, 0xc3, 0x34,
  0x3c, 0x4c, 0x7f, 0x93, 0x26, 0xf2, 0xf7, 0x34, 0x30, 0x01, 0x03, 0x81,
  0x26, 0x1e, 0xb2, 0x86, 0x81, 0xd9, 0x62, 0x9b, 0x23, 0x7d, 0xc5, 0x9b,
  0x7f, 0x5a, 0x52, 0xb2, 0x20, 0x12, 0x3e, 0xf1, 0xd4, 0x4e, 0x7f, 0xf7,
  0x37, 0x1d, 0x76, 0x63, 0x81, 0xab, 0x77, 0x5a, 0x70, 0x32, 0x92, 0x2a,
  0xab, 0x0b, 0x7f, 0x2b, 0x66, 0x70, 0x52, 0x7c, 0x13, 0x1a, 0xe3, 0xda,
  0x7f, 0xb2, 0xba, 0x8f, 0x7f, 0xaa, 0x00, 0x24, 0x66, 0x96, 0xdc, 0x5e,
  0x3f, 0xad, 0x81, 0x9c, 0x11, 0xb4, 0xbf, 0x5c, 0x1f, 0xc7, 0x4b, 0xef,
  0x81, 0x74, 0x25, 0x2f, 0xb0, 0x2f, 0x25, 0x79, 0x3e, 0x81, 0x85, 0x9e,
  0xd6, 0x7f, 0x11, 0xa7, 0x6a, 0xb3, 0xd5, 0xb8, 0x46, 0xea, 0x46, 0x5f,
  0x29, 0x81, 0x10, 0x11, 0xf3, 0x41, 0x7f, 0x37, 0x15, 0xae, 0x91, 0x2f,
  0x20, 0x2b, 0x68, 0x59, 0xcb, 0x81, 0x44, 0xae, 0x09, 0x81, 0xbb, 0x7f,
  0x27, 0x44, 0x36, 0xbc, 0x30, 0x6b, 0xed, 0xb9, 0x44, 0x7f, 0x39, 0x2b,
  0xd5, 0xbd, 0x25, 0x03, 0x7f, 0x79, 0x4b, 0x48, 0x8e, 0x31, 0x7f, 0x38,
  0xdf, 0x73, 0x8a, 0x31, 0x77, 0x81, 0xab, 0x0c, 0xb8, 0x1d, 0x4c, 0xb3,
  0x6c, 0xf2, 0xe1, 0x03, 0x7f, 0xb1, 0x7d, 0xe8, 0x26, 0xfb, 0xc8, 0x51,
  0x33, 0x05, 0x7f, 0xd0, 0xf7, 0x8c, 0x27, 0x74, 0x81, 0x34, 0x5a, 0x74,
  0x84, 0xd3, 0xc0, 0x81, 0x6d, 0x23, 0xc1, 0xeb, 0x71, 0x16, 0xfd, 0xda,
  0x19, 0x2c, 0x81, 0x4e, 0x87, 0x1a, 0xdf, 0xca, 0x67, 0xd0, 0x7f, 0x45,
  0x1c, 0x81, 0x33, 0x89, 0xe7, 0x6f, 0x14, 0xaa, 0x81, 0x57, 0x01, 0x7f,
  0x82, 0xfd, 0x24, 0xc1, 0xf2, 0x8a, 0xf6, 0x81, 0x9c, 0x0c, 0xbf, 0xd4,
  0xf9, 0xd3, 0xb2, 0xdf, 0x2a, 0x86, 0xb4, 0x81, 0x81, 0x06, 0x49, 0x13,
  0xe5, 0xb7, 0x28, 0xd9, 0xa7, 0xbc, 0xf6, 0x81, 0xb0, 0x2c, 0x56, 0xaa,
  0x43, 0x39, 0xa6, 0x81, 0x5c, 0x35, 0xda, 0x7e, 0x33, 0xe0, 0x57, 0x99,
  0xcb, 0x74, 0x81, 0xb9, 0x41, 0x3d, 0xf0, 0x06, 0x0b, 0xd9, 0x81, 0xc2,
  0x52, 0x33, 0x68, 0x6c, 0x66, 0x26, 0x6e, 0x7f, 0x81, 0x87, 0x82, 0xc4,
  0x66, 0xd4, 0x6c, 0xfe, 0x86, 0x81, 0x82, 0x41, 0x82, 0xfd, 0xf7, 0xe1,
  0x81, 0xa6, 0x09, 0x40, 0xe4, 0xe1, 0x4c, 0xa5, 0x31, 0x10, 0x3e, 0x42,
  0x81, 0x24, 0xfa, 0xa8, 0x81, 0x1f, 0xc3, 0x1e, 0x13, 0xa4, 0x3e, 0xe8,
  0x71, 0x33, 0x7f, 0x04, 0x40, 0xc9, 0x17, 0x53, 0xeb, 0xb8, 0x53, 0x7f,
  0x49, 0xc2, 0x21, 0x0c, 0x26, 0xf5, 0xff, 0xff, 0x04, 0x00, 0x00, 0x00,
  0xa0, 0x01, 0x00, 0x00, 0x46, 0xff, 0xff, 0xff, 0x8e, 0xfd, 0xff, 0xff,
  0x8d, 0x08, 0x00, 0x00, 0x94, 0x0f, 0x00, 0x00, 0x85, 0x09, 0x00, 0x00,
  0x0f, 0xfd, 0xff, 0xff, 0xd4, 0x07, 0x00, 0x00, 0x22, 0x03, 0x00, 0x00,
  0xd6, 0x0c, 0x00, 0x00, 0x4c, 0xff, 0xff, 0xff, 0x41, 0x0a, 0x00, 0x00,
  0x26, 0x07, 0x00, 0x00, 0xd0, 0x0b, 0x00, 0x00, 0xe7, 0x09, 0x00, 0x00,
  0xc5, 0xfc, 0xff, 0xff, 0xae, 0x01, 0x00, 0x00, 0x8f, 0x0a, 0x00, 0x00,
  0x5e, 0xfe, 0xff, 0xff, 0x57, 0x0c, 0x00, 0x00, 0x4d, 0x07, 0x00, 0x00,
  0x00, 0x00, 0x00, 0x00, 0x3f, 0x02, 0x00, 0x00, 0x63, 0x03, 0x00, 0x00,
  0xba, 0x0c, 0x00, 0x00, 0xfd, 0x08, 0x00, 0x00, 0x3e, 0x0a, 0x00, 0x00,
  0x3d, 0xff, 0xff, 0xff, 0xd7, 0x01, 0x00, 0x00, 0x05, 0xf1, 0xff, 0xff,
  0x5d, 0xff, 0xff, 0xff, 0xd8, 0xf6, 0xff, 0xff, 0x00, 0x00, 0x00, 0x00,
  0x6e, 0xfe, 0xff, 0xff, 0x8d, 0x0b, 0x00, 0x00, 0x11, 0xf9, 0xff, 0xff,
  0x6d, 0xff, 0xff, 0xff, 0x59, 0xfa, 0xff, 0xff, 0x21, 0xff, 0xff, 0xff,
  0xba, 0xff, 0xff, 0xff, 0x15, 0xfa, 0xff, 0xff, 0xc3, 0xfa, 0xff, 0xff,
  0x3d, 0x07, 0x00, 0x00, 0x00, 0x00, 0x00, 0x00, 0xd6, 0xfe, 0xff, 0xff,
  0x05, 0xfe, 0xff, 0xff, 0xc4, 0xfe, 0xff, 0xff, 0x43, 0xff, 0xff, 0xff,
  0x72, 0xf5, 0xff, 0xff, 0x6a, 0x0a, 0x00, 0x00, 0xe7, 0xfc, 0xff, 0xff,
  0xf3, 0x00, 0x00, 0x00, 0x32, 0xf9, 0xff, 0xff, 0x6f, 0x0c, 0x00, 0x00,
  0xc2, 0xfa, 0xff, 0xff, 0xeb, 0x0e, 0x00, 0x00, 0x3d, 0x0d, 0x00, 0x00,
  0x00, 0x00, 0x00, 0x00, 0x00, 0x00, 0x00, 0x00, 0x07, 0xff, 0xff, 0xff,
  0x05, 0xf9, 0xff, 0xff, 0xca, 0x0b, 0x00, 0x00, 0xd0, 0xf5, 0xff, 0xff,
  0x00, 0x00, 0x00, 0x00, 0x2b, 0x0e, 0x00, 0x00, 0x5b, 0x0a, 0x00, 0x00,
  0x1b, 0xff, 0xff, 0xff, 0x10, 0x09, 0x00, 0x00, 0xd4, 0xf0, 0xff, 0xff,
  0x7a, 0x0e, 0x00, 0x00, 0x63, 0xff, 0xff, 0xff, 0x1f, 0xfa, 0xff, 0xff,
  0xa5, 0xfd, 0xff, 0xff, 0x6f, 0x0a, 0x00, 0x00, 0x71, 0x0c, 0x00, 0x00,
  0x83, 0xfa, 0xff, 0xff, 0xe2, 0xf6, 0xff, 0xff, 0x49, 0xff, 0xff, 0xff,
  0xe8, 0xff, 0xff, 0xff, 0x10, 0x08, 0x00, 0x00, 0x7d, 0x01, 0x00, 0x00,
  0x95, 0xfd, 0xff, 0xff, 0xae, 0x0a, 0x00, 0x00, 0x67, 0x10, 0x00, 0x00,
  0x97, 0xfb, 0xff, 0xff, 0x22, 0xff, 0xff, 0xff, 0xad, 0xf7, 0xff, 0xff,
  0xee, 0xfa, 0xff, 0xff, 0x6d, 0xfc, 0xff, 0xff, 0x5c, 0xfc, 0xff, 0xff,
  0x00, 0x00, 0x00, 0x00, 0x00, 0x00, 0x00, 0x00, 0x95, 0xf5, 0xff, 0xff,
  0xa7, 0xf9, 0xff, 0xff, 0x2d, 0xf6, 0xff, 0xff, 0x00, 0x00, 0x00, 0x00,
  0x21, 0xf7, 0xff, 0xff, 0xe4, 0x05, 0x00, 0x00, 0x5b, 0xf7, 0xff, 0xff,
  0x00, 0x00, 0x00, 0x00, 0xae, 0xfc, 0xff, 0xff, 0x26, 0xfc, 0xff, 0xff,
  0xf3, 0xf6, 0xff, 0xff, 0x0d, 0x0a, 0x00, 0x00, 0xd8, 0x0b, 0x00, 0x00,
  0xd2, 0xf6, 0xff, 0xff, 0x04, 0x00, 0x00, 0x00, 0xc0, 0x00, 0x00, 0x00,
  0xc1, 0x3a, 0xf6, 0x7e, 0x40, 0x6f, 0x17, 0xe2, 0x81, 0xf8, 0x07, 0x0d,
  0xd5, 0xdd, 0x55, 0xae, 0x91, 0xe4, 0x2f, 0x1e, 0x53, 0x62, 0xa7, 0xd1,
  0xc9, 0x0c, 0xf8, 0xd4, 0x40, 0xa8, 0xd3, 0xdb, 0x2d, 0x81, 0x01, 0xc2,
  0x05, 0x2c, 0x1d, 0xe6, 0x0b, 0xe1, 0x44, 0xd4, 0xcb, 0xc5, 0xbd, 0x4d,
  0x11, 0x81, 0x4d, 0xb2, 0xec, 0xbc, 0x2a, 0xdd, 0x3e, 0x0f, 0x17, 0x66,
  0x0b, 0x30, 0x71, 0x5c, 0xbf, 0xc2, 0x52, 0x99, 0xc9, 0xc2, 0x1f, 0x0b,
  0x49, 0xf0, 0x9d, 0xe2, 0xc1, 0x09, 0xe7, 0x6f, 0x47, 0x19, 0x31, 0x2a,
  0x0c, 0x7f, 0xa4, 0x9e, 0xc6, 0x27, 0x8f, 0x9b, 0xe5, 0xe5, 0x8d, 0xf0,
  0x7f, 0x1a, 0x6f, 0xb4, 0x92, 0xbf, 0xa9, 0xf6, 0x42, 0x81, 0x5e, 0x45,
  0x2c, 0xcd, 0xe5, 0x74, 0xfb, 0xae, 0x3c, 0xb3, 0xda, 0x35, 0x8e, 0x3b,
  0x52, 0x32, 0xc0, 0x1f, 0x2f, 0x03, 0xfd, 0x81, 0xfc, 0xdf, 0xd8, 0xe8,
  0x01, 0x4d, 0x77, 0x68, 0x55, 0x9a, 0xd8, 0xbe, 0xe3, 0xcc, 0x34, 0x5b,
  0x4f, 0xfb, 0x22, 0x97, 0x66, 0x78, 0xd0, 0x3a, 0xea, 0xd2, 0xc7, 0x5d,
  0x9b, 0xf2, 0xe6, 0xfd, 0x47, 0x06, 0x20, 0x81, 0x7c, 0xb7, 0x73, 0x71,
  0x29, 0x1c, 0xb3, 0xdf, 0xfe, 0xbc, 0x21, 0xa6, 0xd2, 0x67, 0x44, 0xc6,
  0x9b, 0x63, 0x16, 0x32, 0xcd, 0x7f, 0x63, 0x0d, 0x27, 0x13, 0x2d, 0xc6,
  0x9e, 0xf7, 0xff, 0xff, 0x04, 0x00, 0x00, 0x00, 0x20, 0x00, 0x00, 0x00,
  0x41, 0xfb, 0xff, 0xff, 0x6a, 0x06, 0x00, 0x00, 0xc5, 0x01, 0x00, 0x00,
  0x7e, 0xfa, 0xff, 0xff, 0xcb, 0x05, 0x00, 0x00, 0x2b, 0x00, 0x00, 0x00,
  0x6a, 0xfb, 0xff, 0xff, 0x2d, 0x09, 0x00, 0x00, 0xca, 0xf7, 0xff, 0xff,
  0x04, 0x00, 0x00, 0x00, 0x80, 0x01, 0x00, 0x00, 0xde, 0xe2, 0xb6, 0xcb,
  0xf2, 0xf9, 0x51, 0x8c, 0xd7, 0x0d, 0x8c, 0xeb, 0x6b, 0xa1, 0xd9, 0x7f,
  0xe2, 0x4e, 0xe4, 0x3f, 0xc6, 0x96, 0xc7, 0xb3, 0x49, 0x61, 0x2b, 0x11,
  0xb0, 0x36, 0x1e, 0xca, 0x00, 0xcd, 0xf5, 0xa2, 0x36, 0x7f, 0x38, 0xe0,
  0x16, 0xc2, 0x4a, 0xf1, 0xed, 0xd6, 0x85, 0xcd, 0x04, 0x29, 0x27, 0xd5,
  0x21, 0xc4, 0x22, 0x38, 0x4f, 0x1a, 0xb8, 0xcf, 0xee, 0x22, 0xf7, 0x05,
  0xbd, 0xca, 0x81, 0xab, 0x68, 0x03, 0xe9, 0x6e, 0x13, 0x59, 0xaa, 0x03,
  0x40, 0xc2, 0xae, 0x7f, 0xcf, 0x72, 0x3a, 0xf5, 0xeb, 0xa8, 0x09, 0x51,
  0xd3, 0x4f, 0x28, 0x46, 0x99, 0xdd, 0xe2, 0xbf, 0x2a, 0x81, 0xbe, 0xc9,
  0x84, 0x0f, 0xcd, 0xf0, 0x6c, 0xe9, 0xe2, 0x2e, 0x9e, 0x03, 0x41, 0xe3,
  0xfe, 0x16, 0x5f, 0xb8, 0xc8, 0xcb, 0x1e, 0x5d, 0xfc, 0x0a, 0x9c, 0xdd,
  0x1b, 0xab, 0xac, 0x6a, 0x5d, 0x46, 0xae, 0xc4, 0x0a, 0xfb, 0xde, 0x7f,
  0xf1, 0x9a, 0x40, 0xc3, 0x9f, 0x34, 0x16, 0x15, 0x56, 0xa8, 0x5e, 0x01,
  0x5e, 0x02, 0x2d, 0x1e, 0x60, 0x99, 0x81, 0xae, 0x10, 0xcf, 0x54, 0xf9,
  0xc5, 0xcb, 0xcd, 0x2a, 0xde, 0xae, 0x35, 0x09, 0xea, 0x48, 0xba, 0x6a,
  0x18, 0x8a, 0x2e, 0xd0, 0xff, 0x55, 0x29, 0xb6, 0x57, 0x16, 0xf4, 0x99,
  0xa1, 0xdf, 0xba, 0x96, 0xbe, 0xda, 0x9d, 0x81, 0x11, 0x64, 0x25, 0x02,
  0xdc, 0xa6, 0xca, 0x66, 0x3c, 0x19, 0x51, 0xf9, 0xaf, 0xf6, 0x20, 0x16,
  0xe3, 0xb5, 0xca, 0x34, 0x08, 0x54, 0x00, 0x7f, 0xd4, 0x01, 0x36, 0xd4,
  0x54, 0x1d, 0x6f, 0xb5, 0x1e, 0x6d, 0xd0, 0xce, 0x2a, 0xac, 0x64, 0x1f,
  0x52, 0xd2, 0xc6, 0xd5, 0x10, 0x2a, 0x01, 0x81, 0x28, 0xf2, 0x3c, 0xf9,
  0x77, 0x7f, 0x43, 0xcc, 0x27, 0x2d, 0xef, 0xf9, 0xaf, 0x92, 0xfd, 0x30,
  0x0d, 0x3d, 0x13, 0x59, 0x3b, 0x18, 0x0a, 0xde, 0x5a, 0xd7, 0x36, 0x98,
  0x89, 0x2c, 0xcd, 0xf3, 0x7f, 0xc3, 0x11, 0xd0, 0x71, 0x4f, 0xf5, 0x59,
  0x20, 0x66, 0x16, 0x72, 0xc1, 0x5e, 0x0c, 0xc1, 0x62, 0x7f, 0x51, 0x58,
  0x03, 0xe1, 0xc8, 0xb3, 0x4b, 0x11, 0xaf, 0xe4, 0xf5, 0xcb, 0x1c, 0xef,
  0x6d, 0xfc, 0x2e, 0x95, 0xc3, 0xed, 0xa5, 0x14, 0x74, 0xf5, 0x1d, 0xdd,
  0xe9, 0x77, 0x7f, 0xe4, 0x12, 0x03, 0x19, 0x70, 0x51, 0xe5, 0xce, 0x3d,
  0x09, 0x3f, 0x3e, 0x49, 0xee, 0xf0, 0xe2, 0xd7, 0x18, 0x69, 0x42, 0xde,
  0xfc, 0xe7, 0xf9, 0x59, 0xe4, 0xd8, 0x20, 0xbc, 0x01, 0x81, 0xe3, 0x0f,
  0xe2, 0x3a, 0x4e, 0x47, 0xc5, 0xea, 0x21, 0x1c, 0x0b, 0x45, 0x71, 0x09,
  0x30, 0xe6, 0x9e, 0x03, 0xbb, 0x3a, 0x1e, 0x2b, 0x3c, 0x78, 0x7e, 0xf5,
  0x4b, 0x38, 0xff, 0x0a, 0x29, 0x0a, 0x7f, 0xe2, 0x56, 0xf9, 0xff, 0xff,
  0x04, 0x00, 0x00, 0x00, 0x40, 0x00, 0x00, 0x00, 0xb9, 0x06, 0x00, 0x00,
  0x0b, 0x01, 0x00, 0x00, 0x2f, 0x0a, 0x00, 0x00, 0x22, 0x0f, 0x00, 0x00,
  0xa1, 0x03, 0x00, 0x00, 0x79, 0x0e, 0x00, 0x00, 0x33, 0xfa, 0xff, 0xff,
  0x82, 0xf7, 0xff, 0xff, 0x06, 0x0f, 0x00, 0x00, 0xcc, 0x02, 0x00, 0x00,
  0xa7, 0xf8, 0xff, 0xff, 0x88, 0xf8, 0xff, 0xff, 0xed, 0xfe, 0xff, 0xff,
  0xbe, 0xf8, 0xff, 0xff, 0x15, 0x10, 0x00, 0x00, 0xf1, 0xfa, 0xff, 0xff,
  0xa2, 0xf9, 0xff, 0xff, 0x04, 0x00, 0x00, 0x00, 0x30, 0x00, 0x00, 0x00,
  0x93, 0x63, 0xb5, 0xfc, 0xd7, 0xcf, 0xe8, 0x51, 0xf3, 0x55, 0x53, 0xe7,
  0x42, 0x10, 0x12, 0x47, 0xa6, 0x08, 0x88, 0x81, 0x1e, 0x9f, 0x5a, 0xa5,
  0x85, 0x67, 0x43, 0x01, 0x69, 0x21, 0xd7, 0x07, 0x3b, 0xd9, 0x33, 0xbe,
  0x20, 0x2c, 0x21, 0xf9, 0xb5, 0x02, 0x30, 0x34, 0x5b, 0x53, 0xaa, 0x17,
  0xf0, 0xc5, 0xff, 0xff, 0xe2, 0xf9, 0xff, 0xff, 0x04, 0x00, 0x00, 0x00,
  0x01, 0x00, 0x00, 0x00, 0x80, 0x00, 0x00, 0x00, 0xf2, 0xf9, 0xff, 0xff,
  0x04, 0x00, 0x00, 0x00, 0x0c, 0x00, 0x00, 0x00, 0xff, 0xff, 0xff, 0xff,
  0x32, 0x00, 0x00, 0x00, 0x01, 0x00, 0x00, 0x00, 0x0a, 0xfa, 0xff, 0xff,
  0x04, 0x00, 0x00, 0x00, 0x0c, 0x00, 0x00, 0x00, 0x01, 0x00, 0x00, 0x00,
  0x01, 0x00, 0x00, 0x00, 0x01, 0x00, 0x00, 0x00, 0x22, 0xfa, 0xff, 0xff,
  0x04, 0x00, 0x00, 0x00, 0x0c, 0x00, 0x00, 0x00, 0x00, 0x00, 0x00, 0x00,
  0xff, 0xff, 0xff, 0xff, 0x00, 0x00, 0x00, 0x00, 0x3a, 0xfa, 0xff, 0xff,
  0x04, 0x00, 0x00, 0x00, 0x0c, 0x00, 0x00, 0x00, 0x00, 0x00, 0x00, 0x00,
  0x01, 0x00, 0x00, 0x00, 0x00, 0x00, 0x00, 0x00, 0x52, 0xfa, 0xff, 0xff,
  0x04, 0x00, 0x00, 0x00, 0x0c, 0x00, 0x00, 0x00, 0xff, 0xff, 0xff, 0xff,
  0x34, 0x00, 0x00, 0x00, 0x10, 0x00, 0x00, 0x00, 0x6a, 0xfa, 0xff, 0xff,
  0x04, 0x00, 0x00, 0x00, 0x08, 0x00, 0x00, 0x00, 0x34, 0x00, 0x00, 0x00,
  0x10, 0x00, 0x00, 0x00, 0x7e, 0xfa, 0xff, 0xff, 0x04, 0x00, 0x00, 0x00,
  0x0c, 0x00, 0x00, 0x00, 0xff, 0xff, 0xff, 0xff, 0x1a, 0x00, 0x00, 0x00,
  0x08, 0x00, 0x00, 0x00, 0xa8, 0xc6, 0xff, 0xff, 0x9a, 0xfa, 0xff, 0xff,
  0x04, 0x00, 0x00, 0x00, 0x08, 0x00, 0x00, 0x00, 0x1a, 0x00, 0x00, 0x00,
  0x08, 0x00, 0x00, 0x00, 0xae, 0xfa, 0xff, 0xff, 0x04, 0x00, 0x00, 0x00,
  0x04, 0x00, 0x00, 0x00, 0x08, 0x00, 0x00, 0x00, 0xbe, 0xfa, 0xff, 0xff,
  0x04, 0x00, 0x00, 0x00, 0x04, 0x00, 0x00, 0x00, 0x0d, 0x00, 0x00, 0x00,
  0xce, 0xfa, 0xff, 0xff, 0x04, 0x00, 0x00, 0x00, 0x04, 0x00, 0x00, 0x00,
  0x01, 0x00, 0x00, 0x00, 0xde, 0xfa, 0xff, 0xff, 0x04, 0x00, 0x00, 0x00,
  0x04, 0x00, 0x00, 0x00, 0x00, 0x00, 0x00, 0x00, 0xee, 0xfa, 0xff, 0xff,
  0x04, 0x00, 0x00, 0x00, 0x08, 0x00, 0x00, 0x00, 0xff, 0xff, 0xff, 0xff,
  0x68, 0x00, 0x00, 0x00, 0x02, 0xfb, 0xff, 0xff, 0x04, 0x00, 0x00, 0x00,
  0x0c, 0x00, 0x00, 0x00, 0xff, 0xff, 0xff, 0xff, 0x19, 0x00, 0x00, 0x00,
  0x10, 0x00, 0x00, 0x00, 0x1a, 0xfb, 0xff, 0xff, 0x04, 0x00, 0x00, 0x00,
  0x04, 0x00, 0x00, 0x00, 0xfd, 0xff, 0xff, 0xff, 0x3c, 0xc7, 0xff, 0xff,
  0x40, 0xc7, 0xff, 0xff, 0x0f, 0x00, 0x00, 0x00, 0x4d, 0x4c, 0x49, 0x52,
  0x20, 0x43, 0x6f, 0x6e, 0x76, 0x65, 0x72, 0x74, 0x65, 0x64, 0x2e, 0x00,
  0x01, 0x00, 0x00, 0x00, 0x14, 0x00, 0x00, 0x00, 0x00, 0x00, 0x0e, 0x00,
  0x18, 0x00, 0x14, 0x00, 0x10, 0x00, 0x0c, 0x00, 0x08, 0x00, 0x04, 0x00,
  0x0e, 0x00, 0x00, 0x00, 0x14, 0x00, 0x00, 0x00, 0x1c, 0x00, 0x00, 0x00,
  0x08, 0x07, 0x00, 0x00, 0x0c, 0x07, 0x00, 0x00, 0x10, 0x07, 0x00, 0x00,
  0x04, 0x00, 0x00, 0x00, 0x6d, 0x61, 0x69, 0x6e, 0x00, 0x00, 0x00, 0x00,
  0x1f, 0x00, 0x00, 0x00, 0xc0, 0x06, 0x00, 0x00, 0x60, 0x06, 0x00, 0x00,
  0x28, 0x06, 0x00, 0x00, 0xec, 0x05, 0x00, 0x00, 0xa8, 0x05, 0x00, 0x00,
  0x80, 0x05, 0x00, 0x00, 0x3c, 0x05, 0x00, 0x00, 0x00, 0x05, 0x00, 0x00,
  0xcc, 0x04, 0x00, 0x00, 0x7c, 0x04, 0x00, 0x00, 0x38, 0x04, 0x00, 0x00,
  0x10, 0x04, 0x00, 0x00, 0xdc, 0x03, 0x00, 0x00, 0x9c, 0x03, 0x00, 0x00,
  0x74, 0x03, 0x00, 0x00, 0x3c, 0x03, 0x00, 0x00, 0x0c, 0x03, 0x00, 0x00,
  0xc4, 0x02, 0x00, 0x00, 0x9c, 0x02, 0x00, 0x00, 0x68, 0x02, 0x00, 0x00,
  0x28, 0x02, 0x00, 0x00, 0x00, 0x02, 0x00, 0x00, 0xc8, 0x01, 0x00, 0x00,
  0x98, 0x01, 0x00, 0x00, 0x50, 0x01, 0x00, 0x00, 0x28, 0x01, 0x00, 0x00,
  0xdc, 0x00, 0x00, 0x00, 0xac, 0x00, 0x00, 0x00, 0x60, 0x00, 0x00, 0x00,
  0x38, 0x00, 0x00, 0x00, 0x04, 0x00, 0x00, 0x00, 0x26, 0xfa, 0xff, 0xff,
  0x14, 0x00, 0x00, 0x00, 0x00, 0x00, 0x00, 0x0b, 0x10, 0x00, 0x00, 0x00,
  0x14, 0x00, 0x00, 0x00, 0x09, 0x00, 0x00, 0x00, 0x2c, 0xc8, 0xff, 0xff,
  0x01, 0x00, 0x00, 0x00, 0x3e, 0x00, 0x00, 0x00, 0x02, 0x00, 0x00, 0x00,
  0x3d, 0x00, 0x00, 0x00, 0x11, 0x00, 0x00, 0x00, 0x86, 0xfa, 0xff, 0xff,
  0x0c, 0x00, 0x00, 0x00, 0x10, 0x00, 0x00, 0x00, 0x02, 0x00, 0x00, 0x00,
  0x01, 0x00, 0x00, 0x00, 0x3d, 0x00, 0x00, 0x00, 0x02, 0x00, 0x00, 0x00,
  0x3c, 0x00, 0x00, 0x00, 0x10, 0x00, 0x00, 0x00, 0x7a, 0xfa, 0xff, 0xff,
  0x20, 0x00, 0x00, 0x00, 0x00, 0x00, 0x00, 0x01, 0x24, 0x00, 0x00, 0x00,
  0x28, 0x00, 0x00, 0x00, 0x01, 0x00, 0x00, 0x00, 0x00, 0x00, 0x0a, 0x00,
  0x0c, 0x00, 0x00, 0x00, 0x08, 0x00, 0x04, 0x00, 0x0a, 0x00, 0x00, 0x00,
  0x01, 0x00, 0x00, 0x00, 0x01, 0x00, 0x00, 0x00, 0x01, 0x00, 0x00, 0x00,
  0x3c, 0x00, 0x00, 0x00, 0x03, 0x00, 0x00, 0x00, 0x3b, 0x00, 0x00, 0x00,
  0x13, 0x00, 0x00, 0x00, 0x12, 0x00, 0x00, 0x00, 0x66, 0xfa, 0xff, 0xff,
  0x10, 0x00, 0x00, 0x00, 0x00, 0x00, 0x00, 0x34, 0x0c, 0x00, 0x00, 0x00,
  0x10, 0x00, 0x00, 0x00, 0xc4, 0xc8, 0xff, 0xff, 0x01, 0x00, 0x00, 0x00,
  0x3b, 0x00, 0x00, 0x00, 0x02, 0x00, 0x00, 0x00, 0x3a, 0x00, 0x00, 0x00,
  0x01, 0x00, 0x00, 0x00, 0xee, 0xfa, 0xff, 0xff, 0x1c, 0x00, 0x00, 0x00,
  0x00, 0x00, 0x00, 0x20, 0x20, 0x00, 0x00, 0x00, 0x24, 0x00, 0x00, 0x00,
  0x05, 0x00, 0x00, 0x00, 0x08, 0x00, 0x0c, 0x00, 0x08, 0x00, 0x04, 0x00,
  0x08, 0x00, 0x00, 0x00, 0x05, 0x00, 0x00, 0x00, 0x05, 0x00, 0x00, 0x00,
  0x01, 0x00, 0x00, 0x00, 0x3a, 0x00, 0x00, 0x00, 0x04, 0x00, 0x00, 0x00,
  0x39, 0x00, 0x00, 0x00, 0x0d, 0x00, 0x00, 0x00, 0x0e, 0x00, 0x00, 0x00,
  0x0f, 0x00, 0x00, 0x00, 0x66, 0xfb, 0xff, 0xff, 0x0c, 0x00, 0x00, 0x00,
  0x10, 0x00, 0x00, 0x00, 0x02, 0x00, 0x00, 0x00, 0x01, 0x00, 0x00, 0x00,
  0x39, 0x00, 0x00, 0x00, 0x02, 0x00, 0x00, 0x00, 0x38, 0x00, 0x00, 0x00,
  0x0c, 0x00, 0x00, 0x00, 0x5a, 0xfb, 0xff, 0xff, 0x14, 0x00, 0x00, 0x00,
  0x00, 0x00, 0x00, 0x31, 0x1c, 0x00, 0x00, 0x00, 0x20, 0x00, 0x00, 0x00,
  0x08, 0x00, 0x00, 0x00, 0x4c, 0xfb, 0xff, 0xff, 0x00, 0x00, 0x00, 0x01,
  0x01, 0x00, 0x00, 0x00, 0x02, 0x00, 0x00, 0x00, 0x01, 0x00, 0x00, 0x00,
  0x38, 0x00, 0x00, 0x00, 0x04, 0x00, 0x00, 0x00, 0x36, 0x00, 0x00, 0x00,
  0x15, 0x00, 0x00, 0x00, 0x37, 0x00, 0x00, 0x00, 0x14, 0x00, 0x00, 0x00,
  0x42, 0xfb, 0xff, 0xff, 0x10, 0x00, 0x00, 0x00, 0x00, 0x00, 0x00, 0x34,
  0x0c, 0x00, 0x00, 0x00, 0x10, 0x00, 0x00, 0x00, 0xa0, 0xc9, 0xff, 0xff,
  0x01, 0x00, 0x00, 0x00, 0x37, 0x00, 0x00, 0x00, 0x02, 0x00, 0x00, 0x00,
  0x32, 0x00, 0x00, 0x00, 0x09, 0x00, 0x00, 0x00, 0xca, 0xfb, 0xff, 0xff,
  0x14, 0x00, 0x00, 0x00, 0x00, 0x00, 0x00, 0x0a, 0x10, 0x00, 0x00, 0x00,
  0x14, 0x00, 0x00, 0x00, 0x07, 0x00, 0x00, 0x00, 0xd0, 0xc9, 0xff, 0xff,
  0x01, 0x00, 0x00, 0x00, 0x36, 0x00, 0x00, 0x00, 0x03, 0x00, 0x00, 0x00,
  0x35, 0x00, 0x00, 0x00, 0x05, 0x00, 0x00, 0x00, 0x0b, 0x00, 0x00, 0x00,
  0x2e, 0xfc, 0xff, 0xff, 0x0c, 0x00, 0x00, 0x00, 0x10, 0x00, 0x00, 0x00,
  0x02, 0x00, 0x00, 0x00, 0x01, 0x00, 0x00, 0x00, 0x35, 0x00, 0x00, 0x00,
  0x02, 0x00, 0x00, 0x00, 0x34, 0x00, 0x00, 0x00, 0x05, 0x00, 0x00, 0x00,
  0x22, 0xfc, 0xff, 0xff, 0x14, 0x00, 0x00, 0x00, 0x00, 0x00, 0x00, 0x20,
  0x14, 0x00, 0x00, 0x00, 0x18, 0x00, 0x00, 0x00, 0x05, 0x00, 0x00, 0x00,
  0xd6, 0xfd, 0xff, 0xff, 0x01, 0x00, 0x00, 0x00, 0x01, 0x00, 0x00, 0x00,
  0x34, 0x00, 0x00, 0x00, 0x04, 0x00, 0x00, 0x00, 0x33, 0x00, 0x00, 0x00,
  0x04, 0x00, 0x00, 0x00, 0x05, 0x00, 0x00, 0x00, 0x05, 0x00, 0x00, 0x00,
  0x5e, 0xfc, 0xff, 0xff, 0x14, 0x00, 0x00, 0x00, 0x00, 0x00, 0x00, 0x37,
  0x14, 0x00, 0x00, 0x00, 0x18, 0x00, 0x00, 0x00, 0x04, 0x00, 0x00, 0x00,
  0x5e, 0xfd, 0xff, 0xff, 0x00, 0x00, 0x00, 0x02, 0x01, 0x00, 0x00, 0x00,
  0x33, 0x00, 0x00, 0x00, 0x01, 0x00, 0x00, 0x00, 0x32, 0x00, 0x00, 0x00,
  0xbe, 0xfc, 0xff, 0xff, 0x0c, 0x00, 0x00, 0x00, 0x10, 0x00, 0x00, 0x00,
  0x02, 0x00, 0x00, 0x00, 0x01, 0x00, 0x00, 0x00, 0x32, 0x00, 0x00, 0x00,
  0x02, 0x00, 0x00, 0x00, 0x31, 0x00, 0x00, 0x00, 0x0a, 0x00, 0x00, 0x00,
  0xb2, 0xfc, 0xff, 0xff, 0x14, 0x00, 0x00, 0x00, 0x00, 0x00, 0x00, 0x31,
  0x1c, 0x00, 0x00, 0x00, 0x20, 0x00, 0x00, 0x00, 0x08, 0x00, 0x00, 0x00,
  0xa4, 0xfc, 0xff, 0xff, 0x00, 0x00, 0x00, 0x01, 0x01, 0x00, 0x00, 0x00,
  0x02, 0x00, 0x00, 0x00, 0x01, 0x00, 0x00, 0x00, 0x31, 0x00, 0x00, 0x00,
  0x04, 0x00, 0x00, 0x00, 0x2f, 0x00, 0x00, 0x00, 0x17, 0x00, 0x00, 0x00,
  0x30, 0x00, 0x00, 0x00, 0x16, 0x00, 0x00, 0x00, 0x9a, 0xfc, 0xff, 0xff,
  0x10, 0x00, 0x00, 0x00, 0x00, 0x00, 0x00, 0x34, 0x0c, 0x00, 0x00, 0x00,
  0x10, 0x00, 0x00, 0x00, 0xf8, 0xca, 0xff, 0xff, 0x01, 0x00, 0x00, 0x00,
  0x30, 0x00, 0x00, 0x00, 0x02, 0x00, 0x00, 0x00, 0x2b, 0x00, 0x00, 0x00,
  0x09, 0x00, 0x00, 0x00, 0x22, 0xfd, 0xff, 0xff, 0x14, 0x00, 0x00, 0x00,
  0x00, 0x00, 0x00, 0x0a, 0x10, 0x00, 0x00, 0x00, 0x14, 0x00, 0x00, 0x00,
  0x07, 0x00, 0x00, 0x00, 0x28, 0xcb, 0xff, 0xff, 0x01, 0x00, 0x00, 0x00,
  0x2f, 0x00, 0x00, 0x00, 0x03, 0x00, 0x00, 0x00, 0x2e, 0x00, 0x00, 0x00,
  0x05, 0x00, 0x00, 0x00, 0x08, 0x00, 0x00, 0x00, 0x86, 0xfd, 0xff, 0xff,
  0x0c, 0x00, 0x00, 0x00, 0x10, 0x00, 0x00, 0x00, 0x02, 0x00, 0x00, 0x00,
  0x01, 0x00, 0x00, 0x00, 0x2e, 0x00, 0x00, 0x00, 0x02, 0x00, 0x00, 0x00,
  0x2d, 0x00, 0x00, 0x00, 0x05, 0x00, 0x00, 0x00, 0x7a, 0xfd, 0xff, 0xff,
  0x14, 0x00, 0x00, 0x00, 0x00, 0x00, 0x00, 0x20, 0x14, 0x00, 0x00, 0x00,
  0x18, 0x00, 0x00, 0x00, 0x05, 0x00, 0x00, 0x00, 0x2e, 0xff, 0xff, 0xff,
  0x01, 0x00, 0x00, 0x00, 0x01, 0x00, 0x00, 0x00, 0x2d, 0x00, 0x00, 0x00,
  0x04, 0x00, 0x00, 0x00, 0x2c, 0x00, 0x00, 0x00, 0x04, 0x00, 0x00, 0x00,
  0x05, 0x00, 0x00, 0x00, 0x05, 0x00, 0x00, 0x00, 0xb6, 0xfd, 0xff, 0xff,
  0x14, 0x00, 0x00, 0x00, 0x00, 0x00, 0x00, 0x37, 0x14, 0x00, 0x00, 0x00,
  0x18, 0x00, 0x00, 0x00, 0x04, 0x00, 0x00, 0x00, 0xb6, 0xfe, 0xff, 0xff,
  0x00, 0x00, 0x00, 0x02, 0x01, 0x00, 0x00, 0x00, 0x2c, 0x00, 0x00, 0x00,
  0x01, 0x00, 0x00, 0x00, 0x2b, 0x00, 0x00, 0x00, 0x16, 0xfe, 0xff, 0xff,
  0x0c, 0x00, 0x00, 0x00, 0x10, 0x00, 0x00, 0x00, 0x02, 0x00, 0x00, 0x00,
  0x01, 0x00, 0x00, 0x00, 0x2b, 0x00, 0x00, 0x00, 0x02, 0x00, 0x00, 0x00,
  0x27, 0x00, 0x00, 0x00, 0x2a, 0x00, 0x00, 0x00, 0x0a, 0xfe, 0xff, 0xff,
  0x1c, 0x00, 0x00, 0x00, 0x00, 0x00, 0x00, 0x3b, 0x1c, 0x00, 0x00, 0x00,
  0x20, 0x00, 0x00, 0x00, 0x06, 0x00, 0x00, 0x00, 0x00, 0x00, 0x06, 0x00,
  0x08, 0x00, 0x04, 0x00, 0x06, 0x00, 0x00, 0x00, 0x03, 0x00, 0x00, 0x00,
  0x01, 0x00, 0x00, 0x00, 0x2a, 0x00, 0x00, 0x00, 0x03, 0x00, 0x00, 0x00,
  0x29, 0x00, 0x00, 0x00, 0x06, 0x00, 0x00, 0x00, 0x07, 0x00, 0x00, 0x00,
  0x4a, 0xfe, 0xff, 0xff, 0x24, 0x00, 0x00, 0x00, 0x00, 0x00, 0x00, 0x20,
  0x24, 0x00, 0x00, 0x00, 0x28, 0x00, 0x00, 0x00, 0x05, 0x00, 0x00, 0x00,
  0x00, 0x00, 0x0e, 0x00, 0x08, 0x00, 0x00, 0x00, 0x00, 0x00, 0x00, 0x00,
  0x00, 0x00, 0x04, 0x00, 0x0e, 0x00, 0x00, 0x00, 0x01, 0x00, 0x00, 0x00,
  0x01, 0x00, 0x00, 0x00, 0x29, 0x00, 0x00, 0x00, 0x04, 0x00, 0x00, 0x00,
  0x28, 0x00, 0x00, 0x00, 0x04, 0x00, 0x00, 0x00, 0x05, 0x00, 0x00, 0x00,
  0x05, 0x00, 0x00, 0x00, 0x96, 0xfe, 0xff, 0xff, 0x14, 0x00, 0x00, 0x00,
  0x00, 0x00, 0x00, 0x37, 0x14, 0x00, 0x00, 0x00, 0x18, 0x00, 0x00, 0x00,
  0x04, 0x00, 0x00, 0x00, 0x96, 0xff, 0xff, 0xff, 0x00, 0x00, 0x00, 0x02,
  0x01, 0x00, 0x00, 0x00, 0x28, 0x00, 0x00, 0x00, 0x01, 0x00, 0x00, 0x00,
  0x27, 0x00, 0x00, 0x00, 0xc6, 0xfe, 0xff, 0xff, 0x14, 0x00, 0x00, 0x00,
  0x00, 0x00, 0x00, 0x08, 0x14, 0x00, 0x00, 0x00, 0x18, 0x00, 0x00, 0x00,
  0x03, 0x00, 0x00, 0x00, 0xc6, 0xff, 0xff, 0xff, 0x00, 0x00, 0x00, 0x01,
  0x01, 0x00, 0x00, 0x00, 0x27, 0x00, 0x00, 0x00, 0x03, 0x00, 0x00, 0x00,
  0x26, 0x00, 0x00, 0x00, 0x19, 0x00, 0x00, 0x00, 0x18, 0x00, 0x00, 0x00,
  0xfe, 0xfe, 0xff, 0xff, 0x1c, 0x00, 0x00, 0x00, 0x00, 0x00, 0x00, 0x08,
  0x1c, 0x00, 0x00, 0x00, 0x20, 0x00, 0x00, 0x00, 0x03, 0x00, 0x00, 0x00,
  0x00, 0x00, 0x06, 0x00, 0x08, 0x00, 0x07, 0x00, 0x06, 0x00, 0x00, 0x00,
  0x00, 0x00, 0x00, 0x01, 0x01, 0x00, 0x00, 0x00, 0x26, 0x00, 0x00, 0x00,
  0x03, 0x00, 0x00, 0x00, 0x25, 0x00, 0x00, 0x00, 0x1b, 0x00, 0x00, 0x00,
  0x1a, 0x00, 0x00, 0x00, 0x6e, 0xff, 0xff, 0xff, 0x0c, 0x00, 0x00, 0x00,
  0x10, 0x00, 0x00, 0x00, 0x02, 0x00, 0x00, 0x00, 0x01, 0x00, 0x00, 0x00,
  0x25, 0x00, 0x00, 0x00, 0x02, 0x00, 0x00, 0x00, 0x24, 0x00, 0x00, 0x00,
  0x03, 0x00, 0x00, 0x00, 0x62, 0xff, 0xff, 0xff, 0x14, 0x00, 0x00, 0x00,
  0x00, 0x00, 0x00, 0x01, 0x1c, 0x00, 0x00, 0x00, 0x20, 0x00, 0x00, 0x00,
  0x01, 0x00, 0x00, 0x00, 0x54, 0xff, 0xff, 0xff, 0x00, 0x00, 0x00, 0x01,
  0x01, 0x00, 0x00, 0x00, 0x02, 0x00, 0x00, 0x00, 0x01, 0x00, 0x00, 0x00,
  0x24, 0x00, 0x00, 0x00, 0x03, 0x00, 0x00, 0x00, 0x23, 0x00, 0x00, 0x00,
  0x1d, 0x00, 0x00, 0x00, 0x1c, 0x00, 0x00, 0x00, 0x46, 0xff, 0xff, 0xff,
  0x10, 0x00, 0x00, 0x00, 0x00, 0x00, 0x00, 0x34, 0x0c, 0x00, 0x00, 0x00,
  0x10, 0x00, 0x00, 0x00, 0xa4, 0xcd, 0xff, 0xff, 0x01, 0x00, 0x00, 0x00,
  0x23, 0x00, 0x00, 0x00, 0x02, 0x00, 0x00, 0x00, 0x22, 0x00, 0x00, 0x00,
  0x01, 0x00, 0x00, 0x00, 0x00, 0x00, 0x0a, 0x00, 0x10, 0x00, 0x0c, 0x00,
  0x08, 0x00, 0x04, 0x00, 0x0a, 0x00, 0x00, 0x00, 0x0c, 0x00, 0x00, 0x00,
  0x10, 0x00, 0x00, 0x00, 0x02, 0x00, 0x00, 0x00, 0x01, 0x00, 0x00, 0x00,
  0x22, 0x00, 0x00, 0x00, 0x02, 0x00, 0x00, 0x00, 0x21, 0x00, 0x00, 0x00,
  0x02, 0x00, 0x00, 0x00, 0x00, 0x00, 0x0e, 0x00, 0x18, 0x00, 0x14, 0x00,
  0x10, 0x00, 0x0c, 0x00, 0x0b, 0x00, 0x04, 0x00, 0x0e, 0x00, 0x00, 0x00,
  0x20, 0x00, 0x00, 0x00, 0x00, 0x00, 0x00, 0x01, 0x28, 0x00, 0x00, 0x00,
  0x2c, 0x00, 0x00, 0x00, 0x01, 0x00, 0x00, 0x00, 0x0c, 0x00, 0x10, 0x00,
  0x00, 0x00, 0x0c, 0x00, 0x08, 0x00, 0x07, 0x00, 0x0c, 0x00, 0x00, 0x00,
  0x00, 0x00, 0x00, 0x01, 0x01, 0x00, 0x00, 0x00, 0x02, 0x00, 0x00, 0x00,
  0x01, 0x00, 0x00, 0x00, 0x21, 0x00, 0x00, 0x00, 0x03, 0x00, 0x00, 0x00,
  0x20, 0x00, 0x00, 0x00, 0x1f, 0x00, 0x00, 0x00, 0x1e, 0x00, 0x00, 0x00,
  0x00, 0x00, 0x0e, 0x00, 0x14, 0x00, 0x00, 0x00, 0x10, 0x00, 0x0c, 0x00,
  0x0b, 0x00, 0x04, 0x00, 0x0e, 0x00, 0x00, 0x00, 0x10, 0x00, 0x00, 0x00,
  0x00, 0x00, 0x00, 0x34, 0x0c, 0x00, 0x00, 0x00, 0x10, 0x00, 0x00, 0x00,
  0x6c, 0xce, 0xff, 0xff, 0x01, 0x00, 0x00, 0x00, 0x20, 0x00, 0x00, 0x00,
  0x02, 0x00, 0x00, 0x00, 0x00, 0x00, 0x00, 0x00, 0x01, 0x00, 0x00, 0x00,
  0x01, 0x00, 0x00, 0x00, 0x3e, 0x00, 0x00, 0x00, 0x01, 0x00, 0x00, 0x00,
  0x00, 0x00, 0x00, 0x00, 0x3f, 0x00, 0x00, 0x00, 0xa0, 0x31, 0x00, 0x00,
  0x48, 0x31, 0x00, 0x00, 0xf0, 0x30, 0x00, 0x00, 0xb0, 0x30, 0x00, 0x00,
  0x70, 0x30, 0x00, 0x00, 0x30, 0x30, 0x00, 0x00, 0xf4, 0x2f, 0x00, 0x00,
  0xb8, 0x2f, 0x00, 0x00, 0x78, 0x2f, 0x00, 0x00, 0x3c, 0x2f, 0x00, 0x00,
  0xfc, 0x2e, 0x00, 0x00, 0xb8, 0x2e, 0x00, 0x00, 0x74, 0x2e, 0x00, 0x00,
  0x30, 0x2e, 0x00, 0x00, 0xec, 0x2d, 0x00, 0x00, 0xa8, 0x2d, 0x00, 0x00,
  0x64, 0x2d, 0x00, 0x00, 0xfc, 0x2c, 0x00, 0x00, 0x98, 0x2c, 0x00, 0x00,
  0x2c, 0x2c, 0x00, 0x00, 0x18, 0x2b, 0x00, 0x00, 0xf4, 0x29, 0x00, 0x00,
  0x40, 0x29, 0x00, 0x00, 0x7c, 0x28, 0x00, 0x00, 0x48, 0x23, 0x00, 0x00,
  0x0c, 0x1e, 0x00, 0x00, 0x58, 0x1d, 0x00, 0x00, 0x9c, 0x1c, 0x00, 0x00,
  0xe8, 0x1b, 0x00, 0x00, 0x24, 0x1b, 0x00, 0x00, 0x10, 0x1a, 0x00, 0x00,
  0xec, 0x18, 0x00, 0x00, 0x38, 0x18, 0x00, 0x00, 0xb4, 0x16, 0x00, 0x00,
  0x6c, 0x15, 0x00, 0x00, 0xb4, 0x14, 0x00, 0x00, 0x30, 0x13, 0x00, 0x00,
  0x9c, 0x12, 0x00, 0x00, 0xa0, 0x11, 0x00, 0x00, 0xa4, 0x10, 0x00, 0x00,
  0x40, 0x10, 0x00, 0x00, 0xd8, 0x0f, 0x00, 0x00, 0x6c, 0x0f, 0x00, 0x00,
  0xd0, 0x0e, 0x00, 0x00, 0x64, 0x0e, 0x00, 0x00, 0xf4, 0x0d, 0x00, 0x00,
  0x6c, 0x0d, 0x00, 0x00, 0xf0, 0x0c, 0x00, 0x00, 0x30, 0x0c, 0x00, 0x00,
  0x74, 0x0a, 0x00, 0x00, 0x04, 0x09, 0x00, 0x00, 0x98, 0x08, 0x00, 0x00,
  0x28, 0x08, 0x00, 0x00, 0xa0, 0x07, 0x00, 0x00, 0x24, 0x07, 0x00, 0x00,
  0x64, 0x06, 0x00, 0x00, 0xa8, 0x04, 0x00, 0x00, 0x38, 0x03, 0x00, 0x00,
  0x94, 0x02, 0x00, 0x00, 0xdc, 0x01, 0x00, 0x00, 0x30, 0x01, 0x00, 0x00,
  0x88, 0x00, 0x00, 0x00, 0x04, 0x00, 0x00, 0x00, 0x72, 0xcf, 0xff, 0xff,
  0x00, 0x00, 0x00, 0x01, 0x18, 0x00, 0x00, 0x00, 0x24, 0x00, 0x00, 0x00,
  0x40, 0x00, 0x00, 0x00, 0x3f, 0x00, 0x00, 0x00, 0x00, 0x00, 0x00, 0x09,
  0x54, 0x00, 0x00, 0x00, 0x03, 0x00, 0x00, 0x00, 0xff, 0xff, 0xff, 0xff,
  0x32, 0x00, 0x00, 0x00, 0x01, 0x00, 0x00, 0x00, 0x5c, 0xcf, 0xff, 0xff,
  0x08, 0x00, 0x00, 0x00, 0x10, 0x00, 0x00, 0x00, 0x01, 0x00, 0x00, 0x00,
  0x00, 0x00, 0x00, 0x00, 0x00, 0x00, 0x00, 0x00, 0x01, 0x00, 0x00, 0x00,
  0xcf, 0xc9, 0x01, 0x3c, 0x1b, 0x00, 0x00, 0x00, 0x53, 0x74, 0x61, 0x74,
  0x65, 0x66, 0x75, 0x6c, 0x50, 0x61, 0x72, 0x74, 0x69, 0x74, 0x69, 0x6f,
  0x6e, 0x65, 0x64, 0x43, 0x61, 0x6c, 0x6c, 0x5f, 0x31, 0x3a, 0x30, 0x00,
  0x03, 0x00, 0x00, 0x00, 0x01, 0x00, 0x00, 0x00, 0x32, 0x00, 0x00, 0x00,
  0x01, 0x00, 0x00, 0x00, 0xf2, 0xcf, 0xff, 0xff, 0x00, 0x00, 0x00, 0x01,
  0x18, 0x00, 0x00, 0x00, 0x24, 0x00, 0x00, 0x00, 0x40, 0x00, 0x00, 0x00,
  0x3e, 0x00, 0x00, 0x00, 0x00, 0x00, 0x00, 0x09, 0x78, 0x00, 0x00, 0x00,
  0x03, 0x00, 0x00, 0x00, 0xff, 0xff, 0xff, 0xff, 0x32, 0x00, 0x00, 0x00,
  0x01, 0x00, 0x00, 0x00, 0xdc, 0xcf, 0xff, 0xff, 0x08, 0x00, 0x00, 0x00,
  0x10, 0x00, 0x00, 0x00, 0x01, 0x00, 0x00, 0x00, 0xf5, 0xff, 0xff, 0xff,
  0xff, 0xff, 0xff, 0xff, 0x01, 0x00, 0x00, 0x00, 0xcf, 0xc9, 0x01, 0x3c,
  0x3f, 0x00, 0x00, 0x00, 0x66, 0x75, 0x6e, 0x63, 0x74, 0x69, 0x6f, 0x6e,
  0x61, 0x6c, 0x5f, 0x32, 0x34, 0x5f, 0x31, 0x2f, 0x73, 0x65, 0x71, 0x75,
  0x65, 0x6e, 0x74, 0x69, 0x61, 0x6c, 0x5f, 0x31, 0x36, 0x5f, 0x31, 0x2f,
  0x63, 0x6f, 0x6e, 0x76, 0x31, 0x64, 0x5f, 0x32, 0x35, 0x5f, 0x31, 0x2f,
  0x63, 0x6f, 0x6e, 0x76, 0x6f, 0x6c, 0x75, 0x74, 0x69, 0x6f, 0x6e, 0x2f,
  0x53, 0x71, 0x75, 0x65, 0x65, 0x7a, 0x65, 0x00, 0x03, 0x00, 0x00, 0x00,
  0x01, 0x00, 0x00, 0x00, 0x32, 0x00, 0x00, 0x00, 0x01, 0x00, 0x00, 0x00,
  0x96, 0xd0, 0xff, 0xff, 0x00, 0x00, 0x00, 0x01, 0x18, 0x00, 0x00, 0x00,
  0x28, 0x00, 0x00, 0x00, 0x48, 0x00, 0x00, 0x00, 0x3d, 0x00, 0x00, 0x00,
  0x00, 0x00, 0x00, 0x09, 0x78, 0x00, 0x00, 0x00, 0x04, 0x00, 0x00, 0x00,
  0xff, 0xff, 0xff, 0xff, 0x01, 0x00, 0x00, 0x00, 0x32, 0x00, 0x00, 0x00,
  0x01, 0x00, 0x00, 0x00, 0x84, 0xd0, 0xff, 0xff, 0x08, 0x00, 0x00, 0x00,
  0x14, 0x00, 0x00, 0x00, 0x01, 0x00, 0x00, 0x00, 0xf5, 0xff, 0xff, 0xff,
  0xff, 0xff, 0xff, 0xff, 0x00, 0x00, 0x00, 0x00, 0x01, 0x00, 0x00, 0x00,
  0xcf, 0xc9, 0x01, 0x3c, 0x37, 0x00, 0x00, 0x00, 0x66, 0x75, 0x6e, 0x63,
  0x74, 0x69, 0x6f, 0x6e, 0x61, 0x6c, 0x5f, 0x32, 0x34, 0x5f, 0x31, 0x2f,
  0x73, 0x65, 0x71, 0x75, 0x65, 0x6e, 0x74, 0x69, 0x61, 0x6c, 0x5f, 0x31,
  0x36, 0x5f, 0x31, 0x2f, 0x63, 0x6f, 0x6e, 0x76, 0x31, 0x64, 0x5f, 0x32,
  0x35, 0x5f, 0x31, 0x2f, 0x63, 0x6f, 0x6e, 0x76, 0x6f, 0x6c, 0x75, 0x74,
  0x69, 0x6f, 0x6e, 0x00, 0x04, 0x00, 0x00, 0x00, 0x01, 0x00, 0x00, 0x00,
  0x01, 0x00, 0x00, 0x00, 0x32, 0x00, 0x00, 0x00, 0x01, 0x00, 0x00, 0x00,
  0x3e, 0xd1, 0xff, 0xff, 0x00, 0x00, 0x00, 0x01, 0x18, 0x00, 0x00, 0x00,
  0x28, 0x00, 0x00, 0x00, 0x48, 0x00, 0x00, 0x00, 0x3c, 0x00, 0x00, 0x00,
  0x00, 0x00, 0x00, 0x09, 0x84, 0x00, 0x00, 0x00, 0x04, 0x00, 0x00, 0x00,
  0xff, 0xff, 0xff, 0xff, 0x01, 0x00, 0x00, 0x00, 0x32, 0x00, 0x00, 0x00,
  0x10, 0x00, 0x00, 0x00, 0x2c, 0xd1, 0xff, 0xff, 0x08, 0x00, 0x00, 0x00,
  0x14, 0x00, 0x00, 0x00, 0x01, 0x00, 0x00, 0x00, 0x80, 0xff, 0xff, 0xff,
  0xff, 0xff, 0xff, 0xff, 0x00, 0x00, 0x00, 0x00, 0x01, 0x00, 0x00, 0x00,
  0xf4, 0x9b, 0xb1, 0x3b, 0x42, 0x00, 0x00, 0x00, 0x66, 0x75, 0x6e, 0x63,
  0x74, 0x69, 0x6f, 0x6e, 0x61, 0x6c, 0x5f, 0x32, 0x34, 0x5f, 0x31, 0x2f,
  0x73, 0x65, 0x71, 0x75, 0x65, 0x6e, 0x74, 0x69, 0x61, 0x6c, 0x5f, 0x31,
  0x36, 0x5f, 0x31, 0x2f, 0x63, 0x6f, 0x6e, 0x76, 0x31, 0x64, 0x5f, 0x32,
  0x35, 0x5f, 0x31, 0x2f, 0x63, 0x6f, 0x6e, 0x76, 0x6f, 0x6c, 0x75, 0x74,
  0x69, 0x6f, 0x6e, 0x2f, 0x45, 0x78, 0x70, 0x61, 0x6e, 0x64, 0x44, 0x69,
  0x6d, 0x73, 0x00, 0x00, 0x04, 0x00, 0x00, 0x00, 0x01, 0x00, 0x00, 0x00,
  0x01, 0x00, 0x00, 0x00, 0x32, 0x00, 0x00, 0x00, 0x10, 0x00, 0x00, 0x00,
  0xf2, 0xd1, 0xff, 0xff, 0x00, 0x00, 0x00, 0x01, 0x18, 0x00, 0x00, 0x00,
  0x24, 0x00, 0x00, 0x00, 0x40, 0x00, 0x00, 0x00, 0x3b, 0x00, 0x00, 0x00,
  0x00, 0x00, 0x00, 0x09, 0x74, 0x00, 0x00, 0x00, 0x03, 0x00, 0x00, 0x00,
  0xff, 0xff, 0xff, 0xff, 0x32, 0x00, 0x00, 0x00, 0x10, 0x00, 0x00, 0x00,
  0xdc, 0xd1, 0xff, 0xff, 0x08, 0x00, 0x00, 0x00, 0x10, 0x00, 0x00, 0x00,
  0x01, 0x00, 0x00, 0x00, 0x80, 0xff, 0xff, 0xff, 0xff, 0xff, 0xff, 0xff,
  0x01, 0x00, 0x00, 0x00, 0xf4, 0x9b, 0xb1, 0x3b, 0x3a, 0x00, 0x00, 0x00,
  0x66, 0x75, 0x6e, 0x63, 0x74, 0x69, 0x6f, 0x6e, 0x61, 0x6c, 0x5f, 0x32,
  0x34, 0x5f, 0x31, 0x2f, 0x73, 0x65, 0x71, 0x75, 0x65, 0x6e, 0x74, 0x69,
  0x61, 0x6c, 0x5f, 0x31, 0x36, 0x5f, 0x31, 0x2f, 0x63, 0x72, 0x6f, 0x70,
  0x70, 0x69, 0x6e, 0x67, 0x31, 0x64, 0x5f, 0x31, 0x2f, 0x73, 0x74, 0x72,
  0x69, 0x64, 0x65, 0x64, 0x5f, 0x73, 0x6c, 0x69, 0x63, 0x65, 0x00, 0x00,
  0x03, 0x00, 0x00, 0x00, 0x01, 0x00, 0x00, 0x00, 0x32, 0x00, 0x00, 0x00,
  0x10, 0x00, 0x00, 0x00, 0x92, 0xd2, 0xff, 0xff, 0x00, 0x00, 0x00, 0x01,
  0x18, 0x00, 0x00, 0x00, 0x24, 0x00, 0x00, 0x00, 0x44, 0x00, 0x00, 0x00,
  0x3a, 0x00, 0x00, 0x00, 0x00, 0x00, 0x00, 0x09, 0x40, 0x01, 0x00, 0x00,
  0x03, 0x00, 0x00, 0x00, 0xff, 0xff, 0xff, 0xff, 0x34, 0x00, 0x00, 0x00,
  0x10, 0x00, 0x00, 0x00, 0x7c, 0xd2, 0xff, 0xff, 0x08, 0x00, 0x00, 0x00,
  0x14, 0x00, 0x00, 0x00, 0x01, 0x00, 0x00, 0x00, 0x80, 0xff, 0xff, 0xff,
  0xff, 0xff, 0xff, 0xff, 0x00, 0x00, 0x00, 0x00, 0x01, 0x00, 0x00, 0x00,
  0xf4, 0x9b, 0xb1, 0x3b, 0x03, 0x01, 0x00, 0x00, 0x66, 0x75, 0x6e, 0x63,
  0x74, 0x69, 0x6f, 0x6e, 0x61, 0x6c, 0x5f, 0x32, 0x34, 0x5f, 0x31, 0x2f,
  0x73, 0x65, 0x71, 0x75, 0x65, 0x6e, 0x74, 0x69, 0x61, 0x6c, 0x5f, 0x31,
  0x36, 0x5f, 0x31, 0x2f, 0x63, 0x6f, 0x6e, 0x76, 0x31, 0x64, 0x5f, 0x74,
  0x72, 0x61, 0x6e, 0x73, 0x70, 0x6f, 0x73, 0x65, 0x5f, 0x31, 0x37, 0x5f,
  0x31, 0x2f, 0x52, 0x65, 0x6c, 0x75, 0x3b, 0x66, 0x75, 0x6e, 0x63, 0x74,
  0x69, 0x6f, 0x6e, 0x61, 0x6c, 0x5f, 0x32, 0x34, 0x5f, 0x31, 0x2f, 0x73,
  0x65, 0x71, 0x75, 0x65, 0x6e, 0x74, 0x69, 0x61, 0x6c, 0x5f, 0x31, 0x36,
  0x5f, 0x31, 0x2f, 0x63, 0x6f, 0x6e, 0x76, 0x31, 0x64, 0x5f, 0x74, 0x72,
  0x61, 0x6e, 0x73, 0x70, 0x6f, 0x73, 0x65, 0x5f, 0x31, 0x37, 0x5f, 0x31,
  0x2f, 0x42, 0x69, 0x61, 0x73, 0x41, 0x64, 0x64, 0x3b, 0x66, 0x75, 0x6e,
  0x63, 0x74, 0x69, 0x6f, 0x6e, 0x61, 0x6c, 0x5f, 0x32, 0x34, 0x5f, 0x31,
  0x2f, 0x73, 0x65, 0x71, 0x75, 0x65, 0x6e, 0x74, 0x69, 0x61, 0x6c, 0x5f,
  0x31, 0x36, 0x5f, 0x31, 0x2f, 0x63, 0x6f, 0x6e, 0x76, 0x31, 0x64, 0x5f,
  0x74, 0x72, 0x61, 0x6e, 0x73, 0x70, 0x6f, 0x73, 0x65, 0x5f, 0x31, 0x37,
  0x5f, 0x31, 0x2f, 0x63, 0x6f, 0x6e, 0x76, 0x5f, 0x74, 0x72, 0x61, 0x6e,
  0x73, 0x70, 0x6f, 0x73, 0x65, 0x2f, 0x53, 0x71, 0x75, 0x65, 0x65, 0x7a,
  0x65, 0x3b, 0x66, 0x75, 0x6e, 0x63, 0x74, 0x69, 0x6f, 0x6e, 0x61, 0x6c,
  0x5f, 0x32, 0x34, 0x5f, 0x31, 0x2f, 0x73, 0x65, 0x71, 0x75, 0x65, 0x6e,
  0x74, 0x69, 0x61, 0x6c, 0x5f, 0x31, 0x36, 0x5f, 0x31, 0x2f, 0x63, 0x6f,
  0x6e, 0x76, 0x31, 0x64, 0x5f, 0x74, 0x72, 0x61, 0x6e, 0x73, 0x70, 0x6f,
  0x73, 0x65, 0x5f, 0x31, 0x37, 0x5f, 0x31, 0x2f, 0x53, 0x71, 0x75, 0x65,
  0x65, 0x7a, 0x65, 0x00, 0x03, 0x00, 0x00, 0x00, 0x01, 0x00, 0x00, 0x00,
  0x34, 0x00, 0x00, 0x00, 0x10, 0x00, 0x00, 0x00, 0xfe, 0xd3, 0xff, 0xff,
  0x00, 0x00, 0x00, 0x01, 0x18, 0x00, 0x00, 0x00, 0x28, 0x00, 0x00, 0x00,
  0x44, 0x00, 0x00, 0x00, 0x39, 0x00, 0x00, 0x00, 0x00, 0x00, 0x00, 0x09,
  0x88, 0x01, 0x00, 0x00, 0x04, 0x00, 0x00, 0x00, 0xff, 0xff, 0xff, 0xff,
  0x01, 0x00, 0x00, 0x00, 0x34, 0x00, 0x00, 0x00, 0x10, 0x00, 0x00, 0x00,
  0xec, 0xd3, 0xff, 0xff, 0x08, 0x00, 0x00, 0x00, 0x10, 0x00, 0x00, 0x00,
  0x01, 0x00, 0x00, 0x00, 0x80, 0xff, 0xff, 0xff, 0xff, 0xff, 0xff, 0xff,
  0x01, 0x00, 0x00, 0x00, 0xf4, 0x9b, 0xb1, 0x3b, 0x48, 0x01, 0x00, 0x00,
  0x66, 0x75, 0x6e, 0x63, 0x74, 0x69, 0x6f, 0x6e, 0x61, 0x6c, 0x5f, 0x32,
  0x34, 0x5f, 0x31, 0x2f, 0x73, 0x65, 0x71, 0x75, 0x65, 0x6e, 0x74, 0x69,
  0x61, 0x6c, 0x5f, 0x31, 0x36, 0x5f, 0x31, 0x2f, 0x63, 0x6f, 0x6e, 0x76,
  0x31, 0x64, 0x5f, 0x74, 0x72, 0x61, 0x6e, 0x73, 0x70, 0x6f, 0x73, 0x65,
  0x5f, 0x31, 0x37, 0x5f, 0x31, 0x2f, 0x52, 0x65, 0x6c, 0x75, 0x3b, 0x66,
  0x75, 0x6e, 0x63, 0x74, 0x69, 0x6f, 0x6e, 0x61, 0x6c, 0x5f, 0x32, 0x34,
  0x5f, 0x31, 0x2f, 0x73, 0x65, 0x71, 0x75, 0x65, 0x6e, 0x74, 0x69, 0x61,
  0x6c, 0x5f, 0x31, 0x36, 0x5f, 0x31, 0x2f, 0x63, 0x6f, 0x6e, 0x76, 0x31,
  0x64, 0x5f, 0x74, 0x72, 0x61, 0x6e, 0x73, 0x70, 0x6f, 0x73, 0x65, 0x5f,
  0x31, 0x37, 0x5f, 0x31, 0x2f, 0x42, 0x69, 0x61, 0x73, 0x41, 0x64, 0x64,
  0x3b, 0x66, 0x75, 0x6e, 0x63, 0x74, 0x69, 0x6f, 0x6e, 0x61, 0x6c, 0x5f,
  0x32, 0x34, 0x5f, 0x31, 0x2f, 0x73, 0x65, 0x71, 0x75, 0x65, 0x6e, 0x74,
  0x69, 0x61, 0x6c, 0x5f, 0x31, 0x36, 0x5f, 0x31, 0x2f, 0x63, 0x6f, 0x6e,
  0x76, 0x31, 0x64, 0x5f, 0x74, 0x72, 0x61, 0x6e, 0x73, 0x70, 0x6f, 0x73,
  0x65, 0x5f, 0x31, 0x37, 0x5f, 0x31, 0x2f, 0x63, 0x6f, 0x6e, 0x76, 0x5f,
  0x74, 0x72, 0x61, 0x6e, 0x73, 0x70, 0x6f, 0x73, 0x65, 0x2f, 0x53, 0x71,
  0x75, 0x65, 0x65, 0x7a, 0x65, 0x3b, 0x66, 0x75, 0x6e, 0x63, 0x74, 0x69,
  0x6f, 0x6e, 0x61, 0x6c, 0x5f, 0x32, 0x34, 0x5f, 0x31, 0x2f, 0x73, 0x65,
  0x71, 0x75, 0x65, 0x6e, 0x74, 0x69, 0x61, 0x6c, 0x5f, 0x31, 0x36, 0x5f,
  0x31, 0x2f, 0x63, 0x6f, 0x6e, 0x76, 0x31, 0x64, 0x5f, 0x74, 0x72, 0x61,
  0x6e, 0x73, 0x70, 0x6f, 0x73, 0x65, 0x5f, 0x31, 0x37, 0x5f, 0x31, 0x2f,
  0x53, 0x71, 0x75, 0x65, 0x65, 0x7a, 0x65, 0x3b, 0x66, 0x75, 0x6e, 0x63,
  0x74, 0x69, 0x6f, 0x6e, 0x61, 0x6c, 0x5f, 0x32, 0x34, 0x5f, 0x31, 0x2f,
  0x73, 0x65, 0x71, 0x75, 0x65, 0x6e, 0x74, 0x69, 0x61, 0x6c, 0x5f, 0x31,
  0x36, 0x5f, 0x31, 0x2f, 0x63, 0x6f, 0x6e, 0x76, 0x31, 0x64, 0x5f, 0x74,
  0x72, 0x61, 0x6e, 0x73, 0x70, 0x6f, 0x73, 0x65, 0x5f, 0x31, 0x37, 0x5f,
  0x31, 0x2f, 0x63, 0x6f, 0x6e, 0x76, 0x5f, 0x74, 0x72, 0x61, 0x6e, 0x73,
  0x70, 0x6f, 0x73, 0x65, 0x00, 0x00, 0x00, 0x00, 0x04, 0x00, 0x00, 0x00,
  0x01, 0x00, 0x00, 0x00, 0x01, 0x00, 0x00, 0x00, 0x34, 0x00, 0x00, 0x00,
  0x10, 0x00, 0x00, 0x00, 0xb6, 0xd5, 0xff, 0xff, 0x00, 0x00, 0x00, 0x01,
  0x18, 0x00, 0x00, 0x00, 0x28, 0x00, 0x00, 0x00, 0x44, 0x00, 0x00, 0x00,
  0x38, 0x00, 0x00, 0x00, 0x00, 0x00, 0x00, 0x09, 0x8c, 0x00, 0x00, 0x00,
  0x04, 0x00, 0x00, 0x00, 0xff, 0xff, 0xff, 0xff, 0x01, 0x00, 0x00, 0x00,
  0x1a, 0x00, 0x00, 0x00, 0x08, 0x00, 0x00, 0x00, 0xa4, 0xd5, 0xff, 0xff,
  0x08, 0x00, 0x00, 0x00, 0x10, 0x00, 0x00, 0x00, 0x01, 0x00, 0x00, 0x00,
  0x80, 0xff, 0xff, 0xff, 0xff, 0xff, 0xff, 0xff, 0x01, 0x00, 0x00, 0x00,
  0x0b, 0x58, 0x13, 0x3c, 0x4f, 0x00, 0x00, 0x00, 0x66, 0x75, 0x6e, 0x63,
  0x74, 0x69, 0x6f, 0x6e, 0x61, 0x6c, 0x5f, 0x32, 0x34, 0x5f, 0x31, 0x2f,
  0x73, 0x65, 0x71, 0x75, 0x65, 0x6e, 0x74, 0x69, 0x61, 0x6c, 0x5f, 0x31,
  0x36, 0x5f, 0x31, 0x2f, 0x63, 0x6f, 0x6e, 0x76, 0x31, 0x64, 0x5f, 0x74,
  0x72, 0x61, 0x6e, 0x73, 0x70, 0x6f, 0x73, 0x65, 0x5f, 0x31, 0x37, 0x5f,
  0x31, 0x2f, 0x63, 0x6f, 0x6e, 0x76, 0x5f, 0x74, 0x72, 0x61, 0x6e, 0x73,
  0x70, 0x6f, 0x73, 0x65, 0x2f, 0x45, 0x78, 0x70, 0x61, 0x6e, 0x64, 0x44,
  0x69, 0x6d, 0x73, 0x00, 0x04, 0x00, 0x00, 0x00, 0x01, 0x00, 0x00, 0x00,
  0x01, 0x00, 0x00, 0x00, 0x1a, 0x00, 0x00, 0x00, 0x08, 0x00, 0x00, 0x00,
  0xc6, 0xd6, 0xff, 0xff, 0x00, 0x00, 0x00, 0x01, 0x14, 0x00, 0x00, 0x00,
  0x14, 0x00, 0x00, 0x00, 0x37, 0x00, 0x00, 0x00, 0x00, 0x00, 0x00, 0x02,
  0x58, 0x00, 0x00, 0x00, 0xb0, 0xd6, 0xff, 0xff, 0x4b, 0x00, 0x00, 0x00,
  0x66, 0x75, 0x6e, 0x63, 0x74, 0x69, 0x6f, 0x6e, 0x61, 0x6c, 0x5f, 0x32,
  0x34, 0x5f, 0x31, 0x2f, 0x73, 0x65, 0x71, 0x75, 0x65, 0x6e, 0x74, 0x69,
  0x61, 0x6c, 0x5f, 0x31, 0x36, 0x5f, 0x31, 0x2f, 0x63, 0x6f, 0x6e, 0x76,
  0x31, 0x64, 0x5f, 0x74, 0x72, 0x61, 0x6e, 0x73, 0x70, 0x6f, 0x73, 0x65,
  0x5f, 0x31, 0x37, 0x5f, 0x31, 0x2f, 0x63, 0x6f, 0x6e, 0x76, 0x5f, 0x74,
  0x72, 0x61, 0x6e, 0x73, 0x70, 0x6f, 0x73, 0x65, 0x2f, 0x63, 0x6f, 0x6e,
  0x63, 0x61, 0x74, 0x00, 0x01, 0x00, 0x00, 0x00, 0x04, 0x00, 0x00, 0x00,
  0x3e, 0xd7, 0xff, 0xff, 0x00, 0x00, 0x00, 0x01, 0x14, 0x00, 0x00, 0x00,
  0x14, 0x00, 0x00, 0x00, 0x36, 0x00, 0x00, 0x00, 0x00, 0x00, 0x00, 0x02,
  0x64, 0x00, 0x00, 0x00, 0x28, 0xd7, 0xff, 0xff, 0x54, 0x00, 0x00, 0x00,
  0x66, 0x75, 0x6e, 0x63, 0x74, 0x69, 0x6f, 0x6e, 0x61, 0x6c, 0x5f, 0x32,
  0x34, 0x5f, 0x31, 0x2f, 0x73, 0x65, 0x71, 0x75, 0x65, 0x6e, 0x74, 0x69,
  0x61, 0x6c, 0x5f, 0x31, 0x36, 0x5f, 0x31, 0x2f, 0x63, 0x6f, 0x6e, 0x76,
  0x31, 0x64, 0x5f, 0x74, 0x72, 0x61, 0x6e, 0x73, 0x70, 0x6f, 0x73, 0x65,
  0x5f, 0x31, 0x37, 0x5f, 0x31, 0x2f, 0x63, 0x6f, 0x6e, 0x76, 0x5f, 0x74,
  0x72, 0x61, 0x6e, 0x73, 0x70, 0x6f, 0x73, 0x65, 0x2f, 0x63, 0x6f, 0x6e,
  0x63, 0x61, 0x74, 0x2f, 0x76, 0x61, 0x6c, 0x75, 0x65, 0x73, 0x5f, 0x30,
  0x00, 0x00, 0x00, 0x00, 0x01, 0x00, 0x00, 0x00, 0x01, 0x00, 0x00, 0x00,
  0xc2, 0xd7, 0xff, 0xff, 0x00, 0x00, 0x00, 0x01, 0x14, 0x00, 0x00, 0x00,
  0x14, 0x00, 0x00, 0x00, 0x35, 0x00, 0x00, 0x00, 0x00, 0x00, 0x00, 0x02,
  0x50, 0x00, 0x00, 0x00, 0xac, 0xd7, 0xff, 0xff, 0x43, 0x00, 0x00, 0x00,
  0x66, 0x75, 0x6e, 0x63, 0x74, 0x69, 0x6f, 0x6e, 0x61, 0x6c, 0x5f, 0x32,
  0x34, 0x5f, 0x31, 0x2f, 0x73, 0x65, 0x71, 0x75, 0x65, 0x6e, 0x74, 0x69,
  0x61, 0x6c, 0x5f, 0x31, 0x36, 0x5f, 0x31, 0x2f, 0x63, 0x6f, 0x6e, 0x76,
  0x31, 0x64, 0x5f, 0x74, 0x72, 0x61, 0x6e, 0x73, 0x70, 0x6f, 0x73, 0x65,
  0x5f, 0x31, 0x37, 0x5f, 0x31, 0x2f, 0x73, 0x74, 0x72, 0x69, 0x64, 0x65,
  0x64, 0x5f, 0x73, 0x6c, 0x69, 0x63, 0x65, 0x00, 0x00, 0x00, 0x00, 0x00,
  0x2e, 0xd8, 0xff, 0xff, 0x00, 0x00, 0x00, 0x01, 0x14, 0x00, 0x00, 0x00,
  0x14, 0x00, 0x00, 0x00, 0x34, 0x00, 0x00, 0x00, 0x00, 0x00, 0x00, 0x02,
  0x48, 0x00, 0x00, 0x00, 0x18, 0xd8, 0xff, 0xff, 0x3b, 0x00, 0x00, 0x00,
  0x66, 0x75, 0x6e, 0x63, 0x74, 0x69, 0x6f, 0x6e, 0x61, 0x6c, 0x5f, 0x32,
  0x34, 0x5f, 0x31, 0x2f, 0x73, 0x65, 0x71, 0x75, 0x65, 0x6e, 0x74, 0x69,
  0x61, 0x6c, 0x5f, 0x31, 0x36, 0x5f, 0x31, 0x2f, 0x63, 0x6f, 0x6e, 0x76,
  0x31, 0x64, 0x5f, 0x74, 0x72, 0x61, 0x6e, 0x73, 0x70, 0x6f, 0x73, 0x65,
  0x5f, 0x31, 0x37, 0x5f, 0x31, 0x2f, 0x53, 0x68, 0x61, 0x70, 0x65, 0x00,
  0x01, 0x00, 0x00, 0x00, 0x03, 0x00, 0x00, 0x00, 0x42, 0xd8, 0xff, 0xff,
  0x00, 0x00, 0x00, 0x01, 0x18, 0x00, 0x00, 0x00, 0x24, 0x00, 0x00, 0x00,
  0x44, 0x00, 0x00, 0x00, 0x33, 0x00, 0x00, 0x00, 0x00, 0x00, 0x00, 0x09,
  0x40, 0x01, 0x00, 0x00, 0x03, 0x00, 0x00, 0x00, 0xff, 0xff, 0xff, 0xff,
  0x1a, 0x00, 0x00, 0x00, 0x08, 0x00, 0x00, 0x00, 0x2c, 0xd8, 0xff, 0xff,
  0x08, 0x00, 0x00, 0x00, 0x14, 0x00, 0x00, 0x00, 0x01, 0x00, 0x00, 0x00,
  0x80, 0xff, 0xff, 0xff, 0xff, 0xff, 0xff, 0xff, 0x00, 0x00, 0x00, 0x00,
  0x01, 0x00, 0x00, 0x00, 0x0b, 0x58, 0x13, 0x3c, 0x03, 0x01, 0x00, 0x00,
  0x66, 0x75, 0x6e, 0x63, 0x74, 0x69, 0x6f, 0x6e, 0x61, 0x6c, 0x5f, 0x32,
  0x34, 0x5f, 0x31, 0x2f, 0x73, 0x65, 0x71, 0x75, 0x65, 0x6e, 0x74, 0x69,
  0x61, 0x6c, 0x5f, 0x31, 0x36, 0x5f, 0x31, 0x2f, 0x63, 0x6f, 0x6e, 0x76,
  0x31, 0x64, 0x5f, 0x74, 0x72, 0x61, 0x6e, 0x73, 0x70, 0x6f, 0x73, 0x65,
  0x5f, 0x31, 0x36, 0x5f, 0x31, 0x2f, 0x52, 0x65, 0x6c, 0x75, 0x3b, 0x66,
  0x75, 0x6e, 0x63, 0x74, 0x69, 0x6f, 0x6e, 0x61, 0x6c, 0x5f, 0x32, 0x34,
  0x5f, 0x31, 0x2f, 0x73, 0x65, 0x71, 0x75, 0x65, 0x6e, 0x74, 0x69, 0x61,
  0x6c, 0x5f, 0x31, 0x36, 0x5f, 0x31, 0x2f, 0x63, 0x6f, 0x6e, 0x76, 0x31,
  0x64, 0x5f, 0x74, 0x72, 0x61, 0x6e, 0x73, 0x70, 0x6f, 0x73, 0x65, 0x5f,
  0x31, 0x36, 0x5f, 0x31, 0x2f, 0x42, 0x69, 0x61, 0x73, 0x41, 0x64, 0x64,
  0x3b, 0x66, 0x75, 0x6e, 0x63, 0x74, 0x69, 0x6f, 0x6e, 0x61, 0x6c, 0x5f,
  0x32, 0x34, 0x5f, 0x31, 0x2f, 0x73, 0x65, 0x71, 0x75, 0x65, 0x6e, 0x74,
  0x69, 0x61, 0x6c, 0x5f, 0x31, 0x36, 0x5f, 0x31, 0x2f, 0x63, 0x6f, 0x6e,
  0x76, 0x31, 0x64, 0x5f, 0x74, 0x72, 0x61, 0x6e, 0x73, 0x70, 0x6f, 0x73,
  0x65, 0x5f, 0x31, 0x36, 0x5f, 0x31, 0x2f, 0x63, 0x6f, 0x6e, 0x76, 0x5f,
  0x74, 0x72, 0x61, 0x6e, 0x73, 0x70, 0x6f, 0x73, 0x65, 0x2f, 0x53, 0x71,
  0x75, 0x65, 0x65, 0x7a, 0x65, 0x3b, 0x66, 0x75, 0x6e, 0x63, 0x74, 0x69,
  0x6f, 0x6e, 0x61, 0x6c, 0x5f, 0x32, 0x34, 0x5f, 0x31, 0x2f, 0x73, 0x65,
  0x71, 0x75, 0x65, 0x6e, 0x74, 0x69, 0x61, 0x6c, 0x5f, 0x31, 0x36, 0x5f,
  0x31, 0x2f, 0x63, 0x6f, 0x6e, 0x76, 0x31, 0x64, 0x5f, 0x74, 0x72, 0x61,
  0x6e, 0x73, 0x70, 0x6f, 0x73, 0x65, 0x5f, 0x31, 0x36, 0x5f, 0x31, 0x2f,
  0x53, 0x71, 0x75, 0x65, 0x65, 0x7a, 0x65, 0x00, 0x03, 0x00, 0x00, 0x00,
  0x01, 0x00, 0x00, 0x00, 0x1a, 0x00, 0x00, 0x00, 0x08, 0x00, 0x00, 0x00,
  0xae, 0xd9, 0xff, 0xff, 0x00, 0x00, 0x00, 0x01, 0x18, 0x00, 0x00, 0x00,
  0x28, 0x00, 0x00, 0x00, 0x44, 0x00, 0x00, 0x00, 0x32, 0x00, 0x00, 0x00,
  0x00, 0x00, 0x00, 0x09, 0x88, 0x01, 0x00, 0x00, 0x04, 0x00, 0x00, 0x00,
  0xff, 0xff, 0xff, 0xff, 0x01, 0x00, 0x00, 0x00, 0x1a, 0x00, 0x00, 0x00,
  0x08, 0x00, 0x00, 0x00, 0x9c, 0xd9, 0xff, 0xff, 0x08, 0x00, 0x00, 0x00,
  0x10, 0x00, 0x00, 0x00, 0x01, 0x00, 0x00, 0x00, 0x80, 0xff, 0xff, 0xff,
  0xff, 0xff, 0xff, 0xff, 0x01, 0x00, 0x00, 0x00, 0x0b, 0x58, 0x13, 0x3c,
  0x48, 0x01, 0x00, 0x00, 0x66, 0x75, 0x6e, 0x63, 0x74, 0x69, 0x6f, 0x6e,
  0x61, 0x6c, 0x5f, 0x32, 0x34, 0x5f, 0x31, 0x2f, 0x73, 0x65, 0x71, 0x75,
  0x65, 0x6e, 0x74, 0x69, 0x61, 0x6c, 0x5f, 0x31, 0x36, 0x5f, 0x31, 0x2f,
  0x63, 0x6f, 0x6e, 0x76, 0x31, 0x64, 0x5f, 0x74, 0x72, 0x61, 0x6e, 0x73,
  0x70, 0x6f, 0x73, 0x65, 0x5f, 0x31, 0x36, 0x5f, 0x31, 0x2f, 0x52, 0x65,
  0x6c, 0x75, 0x3b, 0x66, 0x75, 0x6e, 0x63, 0x74, 0x69, 0x6f, 0x6e, 0x61,
  0x6c, 0x5f, 0x32, 0x34, 0x5f, 0x31, 0x2f, 0x73, 0x65, 0x71, 0x75, 0x65,
  0x6e, 0x74, 0x69, 0x61, 0x6c, 0x5f, 0x31, 0x36, 0x5f, 0x31, 0x2f, 0x63,
  0x6f, 0x6e, 0x76, 0x31, 0x64, 0x5f, 0x74, 0x72, 0x61, 0x6e, 0x73, 0x70,
  0x6f, 0x73, 0x65, 0x5f, 0x31, 0x36, 0x5f, 0x31, 0x2f, 0x42, 0x69, 0x61,
  0x73, 0x41, 0x64, 0x64, 0x3b, 0x66, 0x75, 0x6e, 0x63, 0x74, 0x69, 0x6f,
  0x6e, 0x61, 0x6c, 0x5f, 0x32, 0x34, 0x5f, 0x31, 0x2f, 0x73, 0x65, 0x71,
  0x75, 0x65, 0x6e, 0x74, 0x69, 0x61, 0x6c, 0x5f, 0x31, 0x36, 0x5f, 0x31,
  0x2f, 0x63, 0x6f, 0x6e, 0x76, 0x31, 0x64, 0x5f, 0x74, 0x72, 0x61, 0x6e,
  0x73, 0x70, 0x6f, 0x73, 0x65, 0x5f, 0x31, 0x36, 0x5f, 0x31, 0x2f, 0x63,
  0x6f, 0x6e, 0x76, 0x5f, 0x74, 0x72, 0x61, 0x6e, 0x73, 0x70, 0x6f, 0x73,
  0x65, 0x2f, 0x53, 0x71, 0x75, 0x65, 0x65, 0x7a, 0x65, 0x3b, 0x66, 0x75,
  0x6e, 0x63, 0x74, 0x69, 0x6f, 0x6e, 0x61, 0x6c, 0x5f, 0x32, 0x34, 0x5f,
  0x31, 0x2f, 0x73, 0x65, 0x71, 0x75, 0x65, 0x6e, 0x74, 0x69, 0x61, 0x6c,
  0x5f, 0x31, 0x36, 0x5f, 0x31, 0x2f, 0x63, 0x6f, 0x6e, 0x76, 0x31, 0x64,
  0x5f, 0x74, 0x72, 0x61, 0x6e, 0x73, 0x70, 0x6f, 0x73, 0x65, 0x5f, 0x31,
  0x36, 0x5f, 0x31, 0x2f, 0x53, 0x71, 0x75, 0x65, 0x65, 0x7a, 0x65, 0x3b,
  0x66, 0x75, 0x6e, 0x63, 0x74, 0x69, 0x6f, 0x6e, 0x61, 0x6c, 0x5f, 0x32,
  0x34, 0x5f, 0x31, 0x2f, 0x73, 0x65, 0x71, 0x75, 0x65, 0x6e, 0x74, 0x69,
  0x61, 0x6c, 0x5f, 0x31, 0x36, 0x5f, 0x31, 0x2f, 0x63, 0x6f, 0x6e, 0x76,
  0x31, 0x64, 0x5f, 0x74, 0x72, 0x61, 0x6e, 0x73, 0x70, 0x6f, 0x73, 0x65,
  0x5f, 0x31, 0x36, 0x5f, 0x31, 0x2f, 0x63, 0x6f, 0x6e, 0x76, 0x5f, 0x74,
  0x72, 0x61, 0x6e, 0x73, 0x70, 0x6f, 0x73, 0x65, 0x00, 0x00, 0x00, 0x00,
  0x04, 0x00, 0x00, 0x00, 0x01, 0x00, 0x00, 0x00, 0x01, 0x00, 0x00, 0x00,
  0x1a, 0x00, 0x00, 0x00, 0x08, 0x00, 0x00, 0x00, 0x66, 0xdb, 0xff, 0xff,
  0x00, 0x00, 0x00, 0x01, 0x18, 0x00, 0x00, 0x00, 0x28, 0x00, 0x00, 0x00,
  0x44, 0x00, 0x00, 0x00, 0x31, 0x00, 0x00, 0x00, 0x00, 0x00, 0x00, 0x09,
  0x8c, 0x00, 0x00, 0x00, 0x04, 0x00, 0x00, 0x00, 0xff, 0xff, 0xff, 0xff,
  0x01, 0x00, 0x00, 0x00, 0x0d, 0x00, 0x00, 0x00, 0x08, 0x00, 0x00, 0x00,
  0x54, 0xdb, 0xff, 0xff, 0x08, 0x00, 0x00, 0x00, 0x10, 0x00, 0x00, 0x00,
  0x01, 0x00, 0x00, 0x00, 0x80, 0xff, 0xff, 0xff, 0xff, 0xff, 0xff, 0xff,
  0x01, 0x00, 0x00, 0x00, 0x0a, 0x9d, 0x4b, 0x3c, 0x4f, 0x00, 0x00, 0x00,
  0x66, 0x75, 0x6e, 0x63, 0x74, 0x69, 0x6f, 0x6e, 0x61, 0x6c, 0x5f, 0x32,
  0x34, 0x5f, 0x31, 0x2f, 0x73, 0x65, 0x71, 0x75, 0x65, 0x6e, 0x74, 0x69,
  0x61, 0x6c, 0x5f, 0x31, 0x36, 0x5f, 0x31, 0x2f, 0x63, 0x6f, 0x6e, 0x76,
  0x31, 0x64, 0x5f, 0x74, 0x72, 0x61, 0x6e, 0x73, 0x70, 0x6f, 0x73, 0x65,
  0x5f, 0x31, 0x36, 0x5f, 0x31, 0x2f, 0x63, 0x6f, 0x6e, 0x76, 0x5f, 0x74,
  0x72, 0x61, 0x6e, 0x73, 0x70, 0x6f, 0x73, 0x65, 0x2f, 0x45, 0x78, 0x70,
  0x61, 0x6e, 0x64, 0x44, 0x69, 0x6d, 0x73, 0x00, 0x04, 0x00, 0x00, 0x00,
  0x01, 0x00, 0x00, 0x00, 0x01, 0x00, 0x00, 0x00, 0x0d, 0x00, 0x00, 0x00,
  0x08, 0x00, 0x00, 0x00, 0x76, 0xdc, 0xff, 0xff, 0x00, 0x00, 0x00, 0x01,
  0x14, 0x00, 0x00, 0x00, 0x14, 0x00, 0x00, 0x00, 0x30, 0x00, 0x00, 0x00,
  0x00, 0x00, 0x00, 0x02, 0x58, 0x00, 0x00, 0x00, 0x60, 0xdc, 0xff, 0xff,
  0x4b, 0x00, 0x00, 0x00, 0x66, 0x75, 0x6e, 0x63, 0x74, 0x69, 0x6f, 0x6e,
  0x61, 0x6c, 0x5f, 0x32, 0x34, 0x5f, 0x31, 0x2f, 0x73, 0x65, 0x71, 0x75,
  0x65, 0x6e, 0x74, 0x69, 0x61, 0x6c, 0x5f, 0x31, 0x36, 0x5f, 0x31, 0x2f,
  0x63, 0x6f, 0x6e, 0x76, 0x31, 0x64, 0x5f, 0x74, 0x72, 0x61, 0x6e, 0x73,
  0x70, 0x6f, 0x73, 0x65, 0x5f, 0x31, 0x36, 0x5f, 0x31, 0x2f, 0x63, 0x6f,
  0x6e, 0x76, 0x5f, 0x74, 0x72, 0x61, 0x6e, 0x73, 0x70, 0x6f, 0x73, 0x65,
  0x2f, 0x63, 0x6f, 0x6e, 0x63, 0x61, 0x74, 0x00, 0x01, 0x00, 0x00, 0x00,
  0x04, 0x00, 0x00, 0x00, 0xee, 0xdc, 0xff, 0xff, 0x00, 0x00, 0x00, 0x01,
  0x14, 0x00, 0x00, 0x00, 0x14, 0x00, 0x00, 0x00, 0x2f, 0x00, 0x00, 0x00,
  0x00, 0x00, 0x00, 0x02, 0x64, 0x00, 0x00, 0x00, 0xd8, 0xdc, 0xff, 0xff,
  0x54, 0x00, 0x00, 0x00, 0x66, 0x75, 0x6e, 0x63, 0x74, 0x69, 0x6f, 0x6e,
  0x61, 0x6c, 0x5f, 0x32, 0x34, 0x5f, 0x31, 0x2f, 0x73, 0x65, 0x71, 0x75,
  0x65, 0x6e, 0x74, 0x69, 0x61, 0x6c, 0x5f, 0x31, 0x36, 0x5f, 0x31, 0x2f,
  0x63, 0x6f, 0x6e, 0x76, 0x31, 0x64, 0x5f, 0x74, 0x72, 0x61, 0x6e, 0x73,
  0x70, 0x6f, 0x73, 0x65, 0x5f, 0x31, 0x36, 0x5f, 0x31, 0x2f, 0x63, 0x6f,
  0x6e, 0x76, 0x5f, 0x74, 0x72, 0x61, 0x6e, 0x73, 0x70, 0x6f, 0x73, 0x65,
  0x2f, 0x63, 0x6f, 0x6e, 0x63, 0x61, 0x74, 0x2f, 0x76, 0x61, 0x6c, 0x75,
  0x65, 0x73, 0x5f, 0x30, 0x00, 0x00, 0x00, 0x00, 0x01, 0x00, 0x00, 0x00,
  0x01, 0x00, 0x00, 0x00, 0x72, 0xdd, 0xff, 0xff, 0x00, 0x00, 0x00, 0x01,
  0x14, 0x00, 0x00, 0x00, 0x14, 0x00, 0x00, 0x00, 0x2e, 0x00, 0x00, 0x00,
  0x00, 0x00, 0x00, 0x02, 0x50, 0x00, 0x00, 0x00, 0x5c, 0xdd, 0xff, 0xff,
  0x43, 0x00, 0x00, 0x00, 0x66, 0x75, 0x6e, 0x63, 0x74, 0x69, 0x6f, 0x6e,
  0x61, 0x6c, 0x5f, 0x32, 0x34, 0x5f, 0x31, 0x2f, 0x73, 0x65, 0x71, 0x75,
  0x65, 0x6e, 0x74, 0x69, 0x61, 0x6c, 0x5f, 0x31, 0x36, 0x5f, 0x31, 0x2f,
  0x63, 0x6f, 0x6e, 0x76, 0x31, 0x64, 0x5f, 0x74, 0x72, 0x61, 0x6e, 0x73,
  0x70, 0x6f, 0x73, 0x65, 0x5f, 0x31, 0x36, 0x5f, 0x31, 0x2f, 0x73, 0x74,
  0x72, 0x69, 0x64, 0x65, 0x64, 0x5f, 0x73, 0x6c, 0x69, 0x63, 0x65, 0x00,
  0x00, 0x00, 0x00, 0x00, 0xde, 0xdd, 0xff, 0xff, 0x00, 0x00, 0x00, 0x01,
  0x14, 0x00, 0x00, 0x00, 0x14, 0x00, 0x00, 0x00, 0x2d, 0x00, 0x00, 0x00,
  0x00, 0x00, 0x00, 0x02, 0x48, 0x00, 0x00, 0x00, 0xc8, 0xdd, 0xff, 0xff,
  0x3b, 0x00, 0x00, 0x00, 0x66, 0x75, 0x6e, 0x63, 0x74, 0x69, 0x6f, 0x6e,
  0x61, 0x6c, 0x5f, 0x32, 0x34, 0x5f, 0x31, 0x2f, 0x73, 0x65, 0x71, 0x75,
  0x65, 0x6e, 0x74, 0x69, 0x61, 0x6c, 0x5f, 0x31, 0x36, 0x5f, 0x31, 0x2f,
  0x63, 0x6f, 0x6e, 0x76, 0x31, 0x64, 0x5f, 0x74, 0x72, 0x61, 0x6e, 0x73,
  0x70, 0x6f, 0x73, 0x65, 0x5f, 0x31, 0x36, 0x5f, 0x31, 0x2f, 0x53, 0x68,
  0x61, 0x70, 0x65, 0x00, 0x01, 0x00, 0x00, 0x00, 0x03, 0x00, 0x00, 0x00,
  0xf2, 0xdd, 0xff, 0xff, 0x00, 0x00, 0x00, 0x01, 0x18, 0x00, 0x00, 0x00,
  0x24, 0x00, 0x00, 0x00, 0x40, 0x00, 0x00, 0x00, 0x2c, 0x00, 0x00, 0x00,
  0x00, 0x00, 0x00, 0x09, 0x6c, 0x00, 0x00, 0x00, 0x03, 0x00, 0x00, 0x00,
  0xff, 0xff, 0xff, 0xff, 0x0d, 0x00, 0x00, 0x00, 0x08, 0x00, 0x00, 0x00,
  0xdc, 0xdd, 0xff, 0xff, 0x08, 0x00, 0x00, 0x00, 0x10, 0x00, 0x00, 0x00,
  0x01, 0x00, 0x00, 0x00, 0x80, 0xff, 0xff, 0xff, 0xff, 0xff, 0xff, 0xff,
  0x01, 0x00, 0x00, 0x00, 0x0a, 0x9d, 0x4b, 0x3c, 0x33, 0x00, 0x00, 0x00,
  0x66, 0x75, 0x6e, 0x63, 0x74, 0x69, 0x6f, 0x6e, 0x61, 0x6c, 0x5f, 0x32,
  0x34, 0x5f, 0x31, 0x2f, 0x73, 0x65, 0x71, 0x75, 0x65, 0x6e, 0x74, 0x69,
  0x61, 0x6c, 0x5f, 0x31, 0x36, 0x5f, 0x31, 0x2f, 0x72, 0x65, 0x73, 0x68,
  0x61, 0x70, 0x65, 0x5f, 0x38, 0x5f, 0x31, 0x2f, 0x52, 0x65, 0x73, 0x68,
  0x61, 0x70, 0x65, 0x00, 0x03, 0x00, 0x00, 0x00, 0x01, 0x00, 0x00, 0x00,
  0x0d, 0x00, 0x00, 0x00, 0x08, 0x00, 0x00, 0x00, 0xde, 0xde, 0xff, 0xff,
  0x00, 0x00, 0x00, 0x01, 0x14, 0x00, 0x00, 0x00, 0x14, 0x00, 0x00, 0x00,
  0x2b, 0x00, 0x00, 0x00, 0x00, 0x00, 0x00, 0x02, 0x48, 0x00, 0x00, 0x00,
  0xc8, 0xde, 0xff, 0xff, 0x39, 0x00, 0x00, 0x00, 0x66, 0x75, 0x6e, 0x63,
  0x74, 0x69, 0x6f, 0x6e, 0x61, 0x6c, 0x5f, 0x32, 0x34, 0x5f, 0x31, 0x2f,
  0x73, 0x65, 0x71, 0x75, 0x65, 0x6e, 0x74, 0x69, 0x61, 0x6c, 0x5f, 0x31,
  0x36, 0x5f, 0x31, 0x2f, 0x72, 0x65, 0x73, 0x68, 0x61, 0x70, 0x65, 0x5f,
  0x38, 0x5f, 0x31, 0x2f, 0x52, 0x65, 0x73, 0x68, 0x61, 0x70, 0x65, 0x2f,
  0x73, 0x68, 0x61, 0x70, 0x65, 0x00, 0x00, 0x00, 0x01, 0x00, 0x00, 0x00,
  0x03, 0x00, 0x00, 0x00, 0x46, 0xdf, 0xff, 0xff, 0x00, 0x00, 0x00, 0x01,
  0x14, 0x00, 0x00, 0x00, 0x14, 0x00, 0x00, 0x00, 0x2a, 0x00, 0x00, 0x00,
  0x00, 0x00, 0x00, 0x02, 0x48, 0x00, 0x00, 0x00, 0x30, 0xdf, 0xff, 0xff,
  0x39, 0x00, 0x00, 0x00, 0x66, 0x75, 0x6e, 0x63, 0x74, 0x69, 0x6f, 0x6e,
  0x61, 0x6c, 0x5f, 0x32, 0x34, 0x5f, 0x31, 0x2f, 0x73, 0x65, 0x71, 0x75,
  0x65, 0x6e, 0x74, 0x69, 0x61, 0x6c, 0x5f, 0x31, 0x36, 0x5f, 0x31, 0x2f,
  0x72, 0x65, 0x73, 0x68, 0x61, 0x70, 0x65, 0x5f, 0x38, 0x5f, 0x31, 0x2f,
  0x73, 0x74, 0x72, 0x69, 0x64, 0x65, 0x64, 0x5f, 0x73, 0x6c, 0x69, 0x63,
  0x65, 0x00, 0x00, 0x00, 0x00, 0x00, 0x00, 0x00, 0xaa, 0xdf, 0xff, 0xff,
  0x00, 0x00, 0x00, 0x01, 0x14, 0x00, 0x00, 0x00, 0x14, 0x00, 0x00, 0x00,
  0x29, 0x00, 0x00, 0x00, 0x00, 0x00, 0x00, 0x02, 0x40, 0x00, 0x00, 0x00,
  0x94, 0xdf, 0xff, 0xff, 0x31, 0x00, 0x00, 0x00, 0x66, 0x75, 0x6e, 0x63,
  0x74, 0x69, 0x6f, 0x6e, 0x61, 0x6c, 0x5f, 0x32, 0x34, 0x5f, 0x31, 0x2f,
  0x73, 0x65, 0x71, 0x75, 0x65, 0x6e, 0x74, 0x69, 0x61, 0x6c, 0x5f, 0x31,
  0x36, 0x5f, 0x31, 0x2f, 0x72, 0x65, 0x73, 0x68, 0x61, 0x70, 0x65, 0x5f,
  0x38, 0x5f, 0x31, 0x2f, 0x53, 0x68, 0x61, 0x70, 0x65, 0x00, 0x00, 0x00,
  0x01, 0x00, 0x00, 0x00, 0x02, 0x00, 0x00, 0x00, 0xb6, 0xdf, 0xff, 0xff,
  0x00, 0x00, 0x00, 0x01, 0x18, 0x00, 0x00, 0x00, 0x20, 0x00, 0x00, 0x00,
  0x40, 0x00, 0x00, 0x00, 0x28, 0x00, 0x00, 0x00, 0x00, 0x00, 0x00, 0x09,
  0xd0, 0x00, 0x00, 0x00, 0x02, 0x00, 0x00, 0x00, 0xff, 0xff, 0xff, 0xff,
  0x68, 0x00, 0x00, 0x00, 0x9c, 0xdf, 0xff, 0xff, 0x08, 0x00, 0x00, 0x00,
  0x14, 0x00, 0x00, 0x00, 0x01, 0x00, 0x00, 0x00, 0x80, 0xff, 0xff, 0xff,
  0xff, 0xff, 0xff, 0xff, 0x00, 0x00, 0x00, 0x00, 0x01, 0x00, 0x00, 0x00,
  0x0a, 0x9d, 0x4b, 0x3c, 0x94, 0x00, 0x00, 0x00, 0x66, 0x75, 0x6e, 0x63,
  0x74, 0x69, 0x6f, 0x6e, 0x61, 0x6c, 0x5f, 0x32, 0x34, 0x5f, 0x31, 0x2f,
  0x73, 0x65, 0x71, 0x75, 0x65, 0x6e, 0x74, 0x69, 0x61, 0x6c, 0x5f, 0x31,
  0x36, 0x5f, 0x31, 0x2f, 0x64, 0x65, 0x6e, 0x73, 0x65, 0x5f, 0x31, 0x37,
  0x5f, 0x31, 0x2f, 0x4d, 0x61, 0x74, 0x4d, 0x75, 0x6c, 0x3b, 0x66, 0x75,
  0x6e, 0x63, 0x74, 0x69, 0x6f, 0x6e, 0x61, 0x6c, 0x5f, 0x32, 0x34, 0x5f,
  0x31, 0x2f, 0x73, 0x65, 0x71, 0x75, 0x65, 0x6e, 0x74, 0x69, 0x61, 0x6c,
  0x5f, 0x31, 0x36, 0x5f, 0x31, 0x2f, 0x64, 0x65, 0x6e, 0x73, 0x65, 0x5f,
  0x31, 0x37, 0x5f, 0x31, 0x2f, 0x52, 0x65, 0x6c, 0x75, 0x3b, 0x66, 0x75,
  0x6e, 0x63, 0x74, 0x69, 0x6f, 0x6e, 0x61, 0x6c, 0x5f, 0x32, 0x34, 0x5f,
  0x31, 0x2f, 0x73, 0x65, 0x71, 0x75, 0x65, 0x6e, 0x74, 0x69, 0x61, 0x6c,
  0x5f, 0x31, 0x36, 0x5f, 0x31, 0x2f, 0x64, 0x65, 0x6e, 0x73, 0x65, 0x5f,
  0x31, 0x37, 0x5f, 0x31, 0x2f, 0x42, 0x69, 0x61, 0x73, 0x41, 0x64, 0x64,
  0x00, 0x00, 0x00, 0x00, 0x02, 0x00, 0x00, 0x00, 0x01, 0x00, 0x00, 0x00,
  0x68, 0x00, 0x00, 0x00, 0xae, 0xe0, 0xff, 0xff, 0x00, 0x00, 0x00, 0x01,
  0x18, 0x00, 0x00, 0x00, 0x20, 0x00, 0x00, 0x00, 0x40, 0x00, 0x00, 0x00,
  0x27, 0x00, 0x00, 0x00, 0x00, 0x00, 0x00, 0x09, 0xd0, 0x00, 0x00, 0x00,
  0x02, 0x00, 0x00, 0x00, 0xff, 0xff, 0xff, 0xff, 0x08, 0x00, 0x00, 0x00,
  0x94, 0xe0, 0xff, 0xff, 0x08, 0x00, 0x00, 0x00, 0x14, 0x00, 0x00, 0x00,
  0x01, 0x00, 0x00, 0x00, 0x80, 0xff, 0xff, 0xff, 0xff, 0xff, 0xff, 0xff,
  0x00, 0x00, 0x00, 0x00, 0x01, 0x00, 0x00, 0x00, 0x18, 0x35, 0x56, 0x3c,
  0x94, 0x00, 0x00, 0x00, 0x66, 0x75, 0x6e, 0x63, 0x74, 0x69, 0x6f, 0x6e,
  0x61, 0x6c, 0x5f, 0x32, 0x34, 0x5f, 0x31, 0x2f, 0x73, 0x65, 0x71, 0x75,
  0x65, 0x6e, 0x74, 0x69, 0x61, 0x6c, 0x5f, 0x31, 0x35, 0x5f, 0x31, 0x2f,
  0x64, 0x65, 0x6e, 0x73, 0x65, 0x5f, 0x31, 0x36, 0x5f, 0x31, 0x2f, 0x4d,
  0x61, 0x74, 0x4d, 0x75, 0x6c, 0x3b, 0x66, 0x75, 0x6e, 0x63, 0x74, 0x69,
  0x6f, 0x6e, 0x61, 0x6c, 0x5f, 0x32, 0x34, 0x5f, 0x31, 0x2f, 0x73, 0x65,
  0x71, 0x75, 0x65, 0x6e, 0x74, 0x69, 0x61, 0x6c, 0x5f, 0x31, 0x35, 0x5f,
  0x31, 0x2f, 0x64, 0x65, 0x6e, 0x73, 0x65, 0x5f, 0x31, 0x36, 0x5f, 0x31,
  0x2f, 0x52, 0x65, 0x6c, 0x75, 0x3b, 0x66, 0x75, 0x6e, 0x63, 0x74, 0x69,
  0x6f, 0x6e, 0x61, 0x6c, 0x5f, 0x32, 0x34, 0x5f, 0x31, 0x2f, 0x73, 0x65,
  0x71, 0x75, 0x65, 0x6e, 0x74, 0x69, 0x61, 0x6c, 0x5f, 0x31, 0x35, 0x5f,
  0x31, 0x2f, 0x64, 0x65, 0x6e, 0x73, 0x65, 0x5f, 0x31, 0x36, 0x5f, 0x31,
  0x2f, 0x42, 0x69, 0x61, 0x73, 0x41, 0x64, 0x64, 0x00, 0x00, 0x00, 0x00,
  0x02, 0x00, 0x00, 0x00, 0x01, 0x00, 0x00, 0x00, 0x08, 0x00, 0x00, 0x00,
  0xa6, 0xe1, 0xff, 0xff, 0x00, 0x00, 0x00, 0x01, 0x18, 0x00, 0x00, 0x00,
  0x20, 0x00, 0x00, 0x00, 0x3c, 0x00, 0x00, 0x00, 0x26, 0x00, 0x00, 0x00,
  0x00, 0x00, 0x00, 0x09, 0x68, 0x00, 0x00, 0x00, 0x02, 0x00, 0x00, 0x00,
  0xff, 0xff, 0xff, 0xff, 0x68, 0x00, 0x00, 0x00, 0x8c, 0xe1, 0xff, 0xff,
  0x08, 0x00, 0x00, 0x00, 0x10, 0x00, 0x00, 0x00, 0x01, 0x00, 0x00, 0x00,
  0x80, 0xff, 0xff, 0xff, 0xff, 0xff, 0xff, 0xff, 0x01, 0x00, 0x00, 0x00,
  0xe3, 0x17, 0x2f, 0x3b, 0x33, 0x00, 0x00, 0x00, 0x66, 0x75, 0x6e, 0x63,
  0x74, 0x69, 0x6f, 0x6e, 0x61, 0x6c, 0x5f, 0x32, 0x34, 0x5f, 0x31, 0x2f,
  0x73, 0x65, 0x71, 0x75, 0x65, 0x6e, 0x74, 0x69, 0x61, 0x6c, 0x5f, 0x31,
  0x35, 0x5f, 0x31, 0x2f, 0x66, 0x6c, 0x61, 0x74, 0x74, 0x65, 0x6e, 0x5f,
  0x38, 0x5f, 0x31, 0x2f, 0x52, 0x65, 0x73, 0x68, 0x61, 0x70, 0x65, 0x00,
  0x02, 0x00, 0x00, 0x00, 0x01, 0x00, 0x00, 0x00, 0x68, 0x00, 0x00, 0x00,
  0x36, 0xe2, 0xff, 0xff, 0x00, 0x00, 0x00, 0x01, 0x18, 0x00, 0x00, 0x00,
  0x28, 0x00, 0x00, 0x00, 0x44, 0x00, 0x00, 0x00, 0x25, 0x00, 0x00, 0x00,
  0x00, 0x00, 0x00, 0x09, 0x50, 0x01, 0x00, 0x00, 0x04, 0x00, 0x00, 0x00,
  0xff, 0xff, 0xff, 0xff, 0x01, 0x00, 0x00, 0x00, 0x0d, 0x00, 0x00, 0x00,
  0x08, 0x00, 0x00, 0x00, 0x24, 0xe2, 0xff, 0xff, 0x08, 0x00, 0x00, 0x00,
  0x10, 0x00, 0x00, 0x00, 0x01, 0x00, 0x00, 0x00, 0x80, 0xff, 0xff, 0xff,
  0xff, 0xff, 0xff, 0xff, 0x01, 0x00, 0x00, 0x00, 0xe3, 0x17, 0x2f, 0x3b,
  0x10, 0x01, 0x00, 0x00, 0x66, 0x75, 0x6e, 0x63, 0x74, 0x69, 0x6f, 0x6e,
  0x61, 0x6c, 0x5f, 0x32, 0x34, 0x5f, 0x31, 0x2f, 0x73, 0x65, 0x71, 0x75,
  0x65, 0x6e, 0x74, 0x69, 0x61, 0x6c, 0x5f, 0x31, 0x35, 0x5f, 0x31, 0x2f,
  0x63, 0x6f, 0x6e, 0x76, 0x31, 0x64, 0x5f, 0x32, 0x34, 0x5f, 0x31, 0x2f,
  0x52, 0x65, 0x6c, 0x75, 0x3b, 0x66, 0x75, 0x6e, 0x63, 0x74, 0x69, 0x6f,
  0x6e, 0x61, 0x6c, 0x5f, 0x32, 0x34, 0x5f, 0x31, 0x2f, 0x73, 0x65, 0x71,
  0x75, 0x65, 0x6e, 0x74, 0x69, 0x61, 0x6c, 0x5f, 0x31, 0x35, 0x5f, 0x31,
  0x2f, 0x63, 0x6f, 0x6e, 0x76, 0x31, 0x64, 0x5f, 0x32, 0x34, 0x5f, 0x31,
  0x2f, 0x42, 0x69, 0x61, 0x73, 0x41, 0x64, 0x64, 0x3b, 0x66, 0x75, 0x6e,
  0x63, 0x74, 0x69, 0x6f, 0x6e, 0x61, 0x6c, 0x5f, 0x32, 0x34, 0x5f, 0x31,
  0x2f, 0x73, 0x65, 0x71, 0x75, 0x65, 0x6e, 0x74, 0x69, 0x61, 0x6c, 0x5f,
  0x31, 0x35, 0x5f, 0x31, 0x2f, 0x63, 0x6f, 0x6e, 0x76, 0x31, 0x64, 0x5f,
  0x32, 0x34, 0x5f, 0x31, 0x2f, 0x63, 0x6f, 0x6e, 0x76, 0x6f, 0x6c, 0x75,
  0x74, 0x69, 0x6f, 0x6e, 0x2f, 0x53, 0x71, 0x75, 0x65, 0x65, 0x7a, 0x65,
  0x3b, 0x66, 0x75, 0x6e, 0x63, 0x74, 0x69, 0x6f, 0x6e, 0x61, 0x6c, 0x5f,
  0x32, 0x34, 0x5f, 0x31, 0x2f, 0x73, 0x65, 0x71, 0x75, 0x65, 0x6e, 0x74,
  0x69, 0x61, 0x6c, 0x5f, 0x31, 0x35, 0x5f, 0x31, 0x2f, 0x63, 0x6f, 0x6e,
  0x76, 0x31, 0x64, 0x5f, 0x32, 0x34, 0x5f, 0x31, 0x2f, 0x53, 0x71, 0x75,
  0x65, 0x65, 0x7a, 0x65, 0x3b, 0x66, 0x75, 0x6e, 0x63, 0x74, 0x69, 0x6f,
  0x6e, 0x61, 0x6c, 0x5f, 0x32, 0x34, 0x5f, 0x31, 0x2f, 0x73, 0x65, 0x71,
  0x75, 0x65, 0x6e, 0x74, 0x69, 0x61, 0x6c, 0x5f, 0x31, 0x35, 0x5f, 0x31,
  0x2f, 0x63, 0x6f, 0x6e, 0x76, 0x31, 0x64, 0x5f, 0x32, 0x34, 0x5f, 0x31,
  0x2f, 0x63, 0x6f, 0x6e, 0x76, 0x6f, 0x6c, 0x75, 0x74, 0x69, 0x6f, 0x6e,
  0x00, 0x00, 0x00, 0x00, 0x04, 0x00, 0x00, 0x00, 0x01, 0x00, 0x00, 0x00,
  0x01, 0x00, 0x00, 0x00, 0x0d, 0x00, 0x00, 0x00, 0x08, 0x00, 0x00, 0x00,
  0xb6, 0xe3, 0xff, 0xff, 0x00, 0x00, 0x00, 0x01, 0x18, 0x00, 0x00, 0x00,
  0x28, 0x00, 0x00, 0x00, 0x48, 0x00, 0x00, 0x00, 0x24, 0x00, 0x00, 0x00,
  0x00, 0x00, 0x00, 0x09, 0x84, 0x00, 0x00, 0x00, 0x04, 0x00, 0x00, 0x00,
  0xff, 0xff, 0xff, 0xff, 0x01, 0x00, 0x00, 0x00, 0x19, 0x00, 0x00, 0x00,
  0x10, 0x00, 0x00, 0x00, 0xa4, 0xe3, 0xff, 0xff, 0x08, 0x00, 0x00, 0x00,
  0x14, 0x00, 0x00, 0x00, 0x01, 0x00, 0x00, 0x00, 0x80, 0xff, 0xff, 0xff,
  0xff, 0xff, 0xff, 0xff, 0x00, 0x00, 0x00, 0x00, 0x01, 0x00, 0x00, 0x00,
  0xf6, 0x41, 0xf7, 0x3a, 0x42, 0x00, 0x00, 0x00, 0x66, 0x75, 0x6e, 0x63,
  0x74, 0x69, 0x6f, 0x6e, 0x61, 0x6c, 0x5f, 0x32, 0x34, 0x5f, 0x31, 0x2f,
  0x73, 0x65, 0x71, 0x75, 0x65, 0x6e, 0x74, 0x69, 0x61, 0x6c, 0x5f, 0x31,
  0x35, 0x5f, 0x31, 0x2f, 0x63, 0x6f, 0x6e, 0x76, 0x31, 0x64, 0x5f, 0x32,
  0x34, 0x5f, 0x31, 0x2f, 0x63, 0x6f, 0x6e, 0x76, 0x6f, 0x6c, 0x75, 0x74,
  0x69, 0x6f, 0x6e, 0x2f, 0x45, 0x78, 0x70, 0x61, 0x6e, 0x64, 0x44, 0x69,
  0x6d, 0x73, 0x00, 0x00, 0x04, 0x00, 0x00, 0x00, 0x01, 0x00, 0x00, 0x00,
  0x01, 0x00, 0x00, 0x00, 0x19, 0x00, 0x00, 0x00, 0x10, 0x00, 0x00, 0x00,
  0x6a, 0xe4, 0xff, 0xff, 0x00, 0x00, 0x00, 0x01, 0x18, 0x00, 0x00, 0x00,
  0x24, 0x00, 0x00, 0x00, 0x44, 0x00, 0x00, 0x00, 0x23, 0x00, 0x00, 0x00,
  0x00, 0x00, 0x00, 0x09, 0x18, 0x01, 0x00, 0x00, 0x03, 0x00, 0x00, 0x00,
  0xff, 0xff, 0xff, 0xff, 0x19, 0x00, 0x00, 0x00, 0x10, 0x00, 0x00, 0x00,
  0x54, 0xe4, 0xff, 0xff, 0x08, 0x00, 0x00, 0x00, 0x14, 0x00, 0x00, 0x00,
  0x01, 0x00, 0x00, 0x00, 0x80, 0xff, 0xff, 0xff, 0xff, 0xff, 0xff, 0xff,
  0x00, 0x00, 0x00, 0x00, 0x01, 0x00, 0x00, 0x00, 0xf6, 0x41, 0xf7, 0x3a,
  0xd8, 0x00, 0x00, 0x00, 0x66, 0x75, 0x6e, 0x63, 0x74, 0x69, 0x6f, 0x6e,
  0x61, 0x6c, 0x5f, 0x32, 0x34, 0x5f, 0x31, 0x2f, 0x73, 0x65, 0x71, 0x75,
  0x65, 0x6e, 0x74, 0x69, 0x61, 0x6c, 0x5f, 0x31, 0x35, 0x5f, 0x31, 0x2f,
  0x63, 0x6f, 0x6e, 0x76, 0x31, 0x64, 0x5f, 0x32, 0x33, 0x5f, 0x31, 0x2f,
  0x52, 0x65, 0x6c, 0x75, 0x3b, 0x66, 0x75, 0x6e, 0x63, 0x74, 0x69, 0x6f,
  0x6e, 0x61, 0x6c, 0x5f, 0x32, 0x34, 0x5f, 0x31, 0x2f, 0x73, 0x65, 0x71,
  0x75, 0x65, 0x6e, 0x74, 0x69, 0x61, 0x6c, 0x5f, 0x31, 0x35, 0x5f, 0x31,
  0x2f, 0x63, 0x6f, 0x6e, 0x76, 0x31, 0x64, 0x5f, 0x32, 0x33, 0x5f, 0x31,
  0x2f, 0x42, 0x69, 0x61, 0x73, 0x41, 0x64, 0x64, 0x3b, 0x66, 0x75, 0x6e,
  0x63, 0x74, 0x69, 0x6f, 0x6e, 0x61, 0x6c, 0x5f, 0x32, 0x34, 0x5f, 0x31,
  0x2f, 0x73, 0x65, 0x71, 0x75, 0x65, 0x6e, 0x74, 0x69, 0x61, 0x6c, 0x5f,
  0x31, 0x35, 0x5f, 0x31, 0x2f, 0x63, 0x6f, 0x6e, 0x76, 0x31, 0x64, 0x5f,
  0x32, 0x33, 0x5f, 0x31, 0x2f, 0x63, 0x6f, 0x6e, 0x76, 0x6f, 0x6c, 0x75,
  0x74, 0x69, 0x6f, 0x6e, 0x2f, 0x53, 0x71, 0x75, 0x65, 0x65, 0x7a, 0x65,
  0x3b, 0x66, 0x75, 0x6e, 0x63, 0x74, 0x69, 0x6f, 0x6e, 0x61, 0x6c, 0x5f,
  0x32, 0x34, 0x5f, 0x31, 0x2f, 0x73, 0x65, 0x71, 0x75, 0x65, 0x6e, 0x74,
  0x69, 0x61, 0x6c, 0x5f, 0x31, 0x35, 0x5f, 0x31, 0x2f, 0x63, 0x6f, 0x6e,
  0x76, 0x31, 0x64, 0x5f, 0x32, 0x33, 0x5f, 0x31, 0x2f, 0x53, 0x71, 0x75,
  0x65, 0x65, 0x7a, 0x65, 0x00, 0x00, 0x00, 0x00, 0x03, 0x00, 0x00, 0x00,
  0x01, 0x00, 0x00, 0x00, 0x19, 0x00, 0x00, 0x00, 0x10, 0x00, 0x00, 0x00,
  0xae, 0xe5, 0xff, 0xff, 0x00, 0x00, 0x00, 0x01, 0x18, 0x00, 0x00, 0x00,
  0x28, 0x00, 0x00, 0x00, 0x44, 0x00, 0x00, 0x00, 0x22, 0x00, 0x00, 0x00,
  0x00, 0x00, 0x00, 0x09, 0x50, 0x01, 0x00, 0x00, 0x04, 0x00, 0x00, 0x00,
  0xff, 0xff, 0xff, 0xff, 0x01, 0x00, 0x00, 0x00, 0x19, 0x00, 0x00, 0x00,
  0x10, 0x00, 0x00, 0x00, 0x9c, 0xe5, 0xff, 0xff, 0x08, 0x00, 0x00, 0x00,
  0x10, 0x00, 0x00, 0x00, 0x01, 0x00, 0x00, 0x00, 0x80, 0xff, 0xff, 0xff,
  0xff, 0xff, 0xff, 0xff, 0x01, 0x00, 0x00, 0x00, 0xf6, 0x41, 0xf7, 0x3a,
  0x10, 0x01, 0x00, 0x00, 0x66, 0x75, 0x6e, 0x63, 0x74, 0x69, 0x6f, 0x6e,
  0x61, 0x6c, 0x5f, 0x32, 0x34, 0x5f, 0x31, 0x2f, 0x73, 0x65, 0x71, 0x75,
  0x65, 0x6e, 0x74, 0x69, 0x61, 0x6c, 0x5f, 0x31, 0x35, 0x5f, 0x31, 0x2f,
  0x63, 0x6f, 0x6e, 0x76, 0x31, 0x64, 0x5f, 0x32, 0x33, 0x5f, 0x31, 0x2f,
  0x52, 0x65, 0x6c, 0x75, 0x3b, 0x66, 0x75, 0x6e, 0x63, 0x74, 0x69, 0x6f,
  0x6e, 0x61, 0x6c, 0x5f, 0x32, 0x34, 0x5f, 0x31, 0x2f, 0x73, 0x65, 0x71,
  0x75, 0x65, 0x6e, 0x74, 0x69, 0x61, 0x6c, 0x5f, 0x31, 0x35, 0x5f, 0x31,
  0x2f, 0x63, 0x6f, 0x6e, 0x76, 0x31, 0x64, 0x5f, 0x32, 0x33, 0x5f, 0x31,
  0x2f, 0x42, 0x69, 0x61, 0x73, 0x41, 0x64, 0x64, 0x3b, 0x66, 0x75, 0x6e,
  0x63, 0x74, 0x69, 0x6f, 0x6e, 0x61, 0x6c, 0x5f, 0x32, 0x34, 0x5f, 0x31,
  0x2f, 0x73, 0x65, 0x71, 0x75, 0x65, 0x6e, 0x74, 0x69, 0x61, 0x6c, 0x5f,
  0x31, 0x35, 0x5f, 0x31, 0x2f, 0x63, 0x6f, 0x6e, 0x76, 0x31, 0x64, 0x5f,
  0x32, 0x33, 0x5f, 0x31, 0x2f, 0x63, 0x6f, 0x6e, 0x76, 0x6f, 0x6c, 0x75,
  0x74, 0x69, 0x6f, 0x6e, 0x2f, 0x53, 0x71, 0x75, 0x65, 0x65, 0x7a, 0x65,
  0x3b, 0x66, 0x75, 0x6e, 0x63, 0x74, 0x69, 0x6f, 0x6e, 0x61, 0x6c, 0x5f,
  0x32, 0x34, 0x5f, 0x31, 0x2f, 0x73, 0x65, 0x71, 0x75, 0x65, 0x6e, 0x74,
  0x69, 0x61, 0x6c, 0x5f, 0x31, 0x35, 0x5f, 0x31, 0x2f, 0x63, 0x6f, 0x6e,
  0x76, 0x31, 0x64, 0x5f, 0x32, 0x33, 0x5f, 0x31, 0x2f, 0x53, 0x71, 0x75,
  0x65, 0x65, 0x7a, 0x65, 0x3b, 0x66, 0x75, 0x6e, 0x63, 0x74, 0x69, 0x6f,
  0x6e, 0x61, 0x6c, 0x5f, 0x32, 0x34, 0x5f, 0x31, 0x2f, 0x73, 0x65, 0x71,
  0x75, 0x65, 0x6e, 0x74, 0x69, 0x61, 0x6c, 0x5f, 0x31, 0x35, 0x5f, 0x31,
  0x2f, 0x63, 0x6f, 0x6e, 0x76, 0x31, 0x64, 0x5f, 0x32, 0x33, 0x5f, 0x31,
  0x2f, 0x63, 0x6f, 0x6e, 0x76, 0x6f, 0x6c, 0x75, 0x74, 0x69, 0x6f, 0x6e,
  0x00, 0x00, 0x00, 0x00, 0x04, 0x00, 0x00, 0x00, 0x01, 0x00, 0x00, 0x00,
  0x01, 0x00, 0x00, 0x00, 0x19, 0x00, 0x00, 0x00, 0x10, 0x00, 0x00, 0x00,
  0x2e, 0xe7, 0xff, 0xff, 0x00, 0x00, 0x00, 0x01, 0x18, 0x00, 0x00, 0x00,
  0x28, 0x00, 0x00, 0x00, 0x44, 0x00, 0x00, 0x00, 0x21, 0x00, 0x00, 0x00,
  0x00, 0x00, 0x00, 0x09, 0x80, 0x00, 0x00, 0x00, 0x04, 0x00, 0x00, 0x00,
  0xff, 0xff, 0xff, 0xff, 0x01, 0x00, 0x00, 0x00, 0x32, 0x00, 0x00, 0x00,
  0x01, 0x00, 0x00, 0x00, 0x1c, 0xe7, 0xff, 0xff, 0x08, 0x00, 0x00, 0x00,
  0x10, 0x00, 0x00, 0x00, 0x01, 0x00, 0x00, 0x00, 0x80, 0xff, 0xff, 0xff,
  0xff, 0xff, 0xff, 0xff, 0x01, 0x00, 0x00, 0x00, 0xae, 0x7d, 0x80, 0x3b,
  0x42, 0x00, 0x00, 0x00, 0x66, 0x75, 0x6e, 0x63, 0x74, 0x69, 0x6f, 0x6e,
  0x61, 0x6c, 0x5f, 0x32, 0x34, 0x5f, 0x31, 0x2f, 0x73, 0x65, 0x71, 0x75,
  0x65, 0x6e, 0x74, 0x69, 0x61, 0x6c, 0x5f, 0x31, 0x35, 0x5f, 0x31, 0x2f,
  0x63, 0x6f, 0x6e, 0x76, 0x31, 0x64, 0x5f, 0x32, 0x33, 0x5f, 0x31, 0x2f,
  0x63, 0x6f, 0x6e, 0x76, 0x6f, 0x6c, 0x75, 0x74, 0x69, 0x6f, 0x6e, 0x2f,
  0x45, 0x78, 0x70, 0x61, 0x6e, 0x64, 0x44, 0x69, 0x6d, 0x73, 0x00, 0x00,
  0x04, 0x00, 0x00, 0x00, 0x01, 0x00, 0x00, 0x00, 0x01, 0x00, 0x00, 0x00,
  0x32, 0x00, 0x00, 0x00, 0x01, 0x00, 0x00, 0x00, 0x32, 0xe8, 0xff, 0xff,
  0x00, 0x00, 0x00, 0x01, 0x14, 0x00, 0x00, 0x00, 0xe8, 0x00, 0x00, 0x00,
  0x20, 0x00, 0x00, 0x00, 0x00, 0x00, 0x00, 0x09, 0xf4, 0x00, 0x00, 0x00,
  0xb4, 0xe7, 0xff, 0xff, 0x08, 0x00, 0x00, 0x00, 0x8c, 0x00, 0x00, 0x00,
  0x10, 0x00, 0x00, 0x00, 0x00, 0x00, 0x00, 0x00, 0x00, 0x00, 0x00, 0x00,
  0x00, 0x00, 0x00, 0x00, 0x00, 0x00, 0x00, 0x00, 0x00, 0x00, 0x00, 0x00,
  0x00, 0x00, 0x00, 0x00, 0x00, 0x00, 0x00, 0x00, 0x00, 0x00, 0x00, 0x00,
  0x00, 0x00, 0x00, 0x00, 0x00, 0x00, 0x00, 0x00, 0x00, 0x00, 0x00, 0x00,
  0x00, 0x00, 0x00, 0x00, 0x00, 0x00, 0x00, 0x00, 0x00, 0x00, 0x00, 0x00,
  0x00, 0x00, 0x00, 0x00, 0x00, 0x00, 0x00, 0x00, 0x00, 0x00, 0x00, 0x00,
  0x00, 0x00, 0x00, 0x00, 0x00, 0x00, 0x00, 0x00, 0x00, 0x00, 0x00, 0x00,
  0x00, 0x00, 0x00, 0x00, 0x00, 0x00, 0x00, 0x00, 0x00, 0x00, 0x00, 0x00,
  0x00, 0x00, 0x00, 0x00, 0x00, 0x00, 0x00, 0x00, 0x00, 0x00, 0x00, 0x00,
  0x00, 0x00, 0x00, 0x00, 0x00, 0x00, 0x00, 0x00, 0x00, 0x00, 0x00, 0x00,
  0x00, 0x00, 0x00, 0x00, 0x00, 0x00, 0x00, 0x00, 0x00, 0x00, 0x00, 0x00,
  0x00, 0x00, 0x00, 0x00, 0x10, 0x00, 0x00, 0x00, 0xe4, 0xc8, 0x08, 0x3b,
  0x06, 0xb8, 0x17, 0x3b, 0x25, 0x53, 0xa1, 0x3a, 0x96, 0xaf, 0x31, 0x3b,
  0xf3, 0xeb, 0x9b, 0x3a, 0x72, 0x32, 0x2b, 0x3b, 0x13, 0xbc, 0xa7, 0x3a,
  0x28, 0x1d, 0xdd, 0x3a, 0xf4, 0x1a, 0xe2, 0x3a, 0x5c, 0x21, 0xbd, 0x3a,
  0x23, 0x04, 0x08, 0x3b, 0xaa, 0x07, 0xa8, 0x3a, 0x00, 0x0d, 0xa1, 0x3a,
  0x0c, 0xbe, 0x16, 0x3b, 0xd5, 0x78, 0x16, 0x3a, 0x6a, 0x2c, 0xf0, 0x3a,
  0x13, 0x00, 0x00, 0x00, 0x74, 0x66, 0x6c, 0x2e, 0x70, 0x73, 0x65, 0x75,
  0x64, 0x6f, 0x5f, 0x71, 0x63, 0x6f, 0x6e, 0x73, 0x74, 0x31, 0x34, 0x00,
  0x04, 0x00, 0x00, 0x00, 0x10, 0x00, 0x00, 0x00, 0x01, 0x00, 0x00, 0x00,
  0x03, 0x00, 0x00, 0x00, 0x01, 0x00, 0x00, 0x00, 0x52, 0xe9, 0xff, 0xff,
  0x00, 0x00, 0x00, 0x01, 0x14, 0x00, 0x00, 0x00, 0xe4, 0x00, 0x00, 0x00,
  0x1f, 0x00, 0x00, 0x00, 0x00, 0x00, 0x00, 0x02, 0xf0, 0x00, 0x00, 0x00,
  0xd4, 0xe8, 0xff, 0xff, 0x08, 0x00, 0x00, 0x00, 0x88, 0x00, 0x00, 0x00,
  0x10, 0x00, 0x00, 0x00, 0x00, 0x00, 0x00, 0x00, 0x00, 0x00, 0x00, 0x00,
  0x00, 0x00, 0x00, 0x00, 0x00, 0x00, 0x00, 0x00, 0x00, 0x00, 0x00, 0x00,
  0x00, 0x00, 0x00, 0x00, 0x00, 0x00, 0x00, 0x00, 0x00, 0x00, 0x00, 0x00,
  0x00, 0x00, 0x00, 0x00, 0x00, 0x00, 0x00, 0x00, 0x00, 0x00, 0x00, 0x00,
  0x00, 0x00, 0x00, 0x00, 0x00, 0x00, 0x00, 0x00, 0x00, 0x00, 0x00, 0x00,
  0x00, 0x00, 0x00, 0x00, 0x00, 0x00, 0x00, 0x00, 0x00, 0x00, 0x00, 0x00,
  0x00, 0x00, 0x00, 0x00, 0x00, 0x00, 0x00, 0x00, 0x00, 0x00, 0x00, 0x00,
  0x00, 0x00, 0x00, 0x00, 0x00, 0x00, 0x00, 0x00, 0x00, 0x00, 0x00, 0x00,
  0x00, 0x00, 0x00, 0x00, 0x00, 0x00, 0x00, 0x00, 0x00, 0x00, 0x00, 0x00,
  0x00, 0x00, 0x00, 0x00, 0x00, 0x00, 0x00, 0x00, 0x00, 0x00, 0x00, 0x00,
  0x00, 0x00, 0x00, 0x00, 0x00, 0x00, 0x00, 0x00, 0x00, 0x00, 0x00, 0x00,
  0x10, 0x00, 0x00, 0x00, 0x32, 0x4f, 0x09, 0x37, 0xfe, 0x4c, 0x18, 0x37,
  0x8b, 0xf1, 0xa1, 0x36, 0x0d, 0x5e, 0x32, 0x37, 0x0b, 0x85, 0x9c, 0x36,
  0x8a, 0xda, 0x2b, 0x37, 0xc5, 0x60, 0xa8, 0x36, 0x43, 0xf6, 0xdd, 0x36,
  0xf6, 0xf8, 0xe2, 0x36, 0x10, 0xdb, 0xbd, 0x36, 0xb0, 0x89, 0x08, 0x37,
  0xa6, 0xac, 0xa8, 0x36, 0x22, 0xab, 0xa1, 0x36, 0x0f, 0x52, 0x17, 0x37,
  0x94, 0x0c, 0x17, 0x36, 0x3c, 0x18, 0xf1, 0x36, 0x13, 0x00, 0x00, 0x00,
  0x74, 0x66, 0x6c, 0x2e, 0x70, 0x73, 0x65, 0x75, 0x64, 0x6f, 0x5f, 0x71,
  0x63, 0x6f, 0x6e, 0x73, 0x74, 0x31, 0x33, 0x00, 0x01, 0x00, 0x00, 0x00,
  0x10, 0x00, 0x00, 0x00, 0x62, 0xea, 0xff, 0xff, 0x00, 0x00, 0x00, 0x01,
  0x14, 0x00, 0x00, 0x00, 0x88, 0x00, 0x00, 0x00, 0x1e, 0x00, 0x00, 0x00,
  0x00, 0x00, 0x00, 0x09, 0x94, 0x00, 0x00, 0x00, 0xe4, 0xe9, 0xff, 0xff,
  0x08, 0x00, 0x00, 0x00, 0x4c, 0x00, 0x00, 0x00, 0x08, 0x00, 0x00, 0x00,
  0x00, 0x00, 0x00, 0x00, 0x00, 0x00, 0x00, 0x00, 0x00, 0x00, 0x00, 0x00,
  0x00, 0x00, 0x00, 0x00, 0x00, 0x00, 0x00, 0x00, 0x00, 0x00, 0x00, 0x00,
  0x00, 0x00, 0x00, 0x00, 0x00, 0x00, 0x00, 0x00, 0x00, 0x00, 0x00, 0x00,
  0x00, 0x00, 0x00, 0x00, 0x00, 0x00, 0x00, 0x00, 0x00, 0x00, 0x00, 0x00,
  0x00, 0x00, 0x00, 0x00, 0x00, 0x00, 0x00, 0x00, 0x00, 0x00, 0x00, 0x00,
  0x00, 0x00, 0x00, 0x00, 0x00, 0x00, 0x00, 0x00, 0x08, 0x00, 0x00, 0x00,
  0xc4, 0xb1, 0x47, 0x3b, 0xa9, 0xa4, 0x28, 0x3b, 0x19, 0x23, 0x1e, 0x3b,
  0xd3, 0xc8, 0x23, 0x3b, 0x70, 0x75, 0x4b, 0x3b, 0xee, 0x89, 0x21, 0x3b,
  0xf7, 0x5f, 0x1d, 0x3b, 0xbe, 0xd9, 0x43, 0x3b, 0x13, 0x00, 0x00, 0x00,
  0x74, 0x66, 0x6c, 0x2e, 0x70, 0x73, 0x65, 0x75, 0x64, 0x6f, 0x5f, 0x71,
  0x63, 0x6f, 0x6e, 0x73, 0x74, 0x31, 0x32, 0x00, 0x04, 0x00, 0x00, 0x00,
  0x08, 0x00, 0x00, 0x00, 0x01, 0x00, 0x00, 0x00, 0x03, 0x00, 0x00, 0x00,
  0x10, 0x00, 0x00, 0x00, 0x22, 0xeb, 0xff, 0xff, 0x00, 0x00, 0x00, 0x01,
  0x14, 0x00, 0x00, 0x00, 0x84, 0x00, 0x00, 0x00, 0x1d, 0x00, 0x00, 0x00,
  0x00, 0x00, 0x00, 0x02, 0x90, 0x00, 0x00, 0x00, 0xa4, 0xea, 0xff, 0xff,
  0x08, 0x00, 0x00, 0x00, 0x48, 0x00, 0x00, 0x00, 0x08, 0x00, 0x00, 0x00,
  0x00, 0x00, 0x00, 0x00, 0x00, 0x00, 0x00, 0x00, 0x00, 0x00, 0x00, 0x00,
  0x00, 0x00, 0x00, 0x00, 0x00, 0x00, 0x00, 0x00, 0x00, 0x00, 0x00, 0x00,
  0x00, 0x00, 0x00, 0x00, 0x00, 0x00, 0x00, 0x00, 0x00, 0x00, 0x00, 0x00,
  0x00, 0x00, 0x00, 0x00, 0x00, 0x00, 0x00, 0x00, 0x00, 0x00, 0x00, 0x00,
  0x00, 0x00, 0x00, 0x00, 0x00, 0x00, 0x00, 0x00, 0x00, 0x00, 0x00, 0x00,
  0x00, 0x00, 0x00, 0x00, 0x08, 0x00, 0x00, 0x00, 0xf8, 0xdf, 0xc0, 0x36,
  0x53, 0xe2, 0xa2, 0x36, 0x9c, 0xbc, 0x98, 0x36, 0xf7, 0x30, 0x9e, 0x36,
  0xbb, 0x82, 0xc4, 0x36, 0xb4, 0x05, 0x9c, 0x36, 0x24, 0x00, 0x98, 0x36,
  0x8d, 0x29, 0xbd, 0x36, 0x13, 0x00, 0x00, 0x00, 0x74, 0x66, 0x6c, 0x2e,
  0x70, 0x73, 0x65, 0x75, 0x64, 0x6f, 0x5f, 0x71, 0x63, 0x6f, 0x6e, 0x73,
  0x74, 0x31, 0x31, 0x00, 0x01, 0x00, 0x00, 0x00, 0x08, 0x00, 0x00, 0x00,
  0xd2, 0xeb, 0xff, 0xff, 0x00, 0x00, 0x00, 0x01, 0x14, 0x00, 0x00, 0x00,
  0x88, 0x00, 0x00, 0x00, 0x1c, 0x00, 0x00, 0x00, 0x00, 0x00, 0x00, 0x09,
  0x94, 0x00, 0x00, 0x00, 0x54, 0xeb, 0xff, 0xff, 0x08, 0x00, 0x00, 0x00,
  0x4c, 0x00, 0x00, 0x00, 0x08, 0x00, 0x00, 0x00, 0x00, 0x00, 0x00, 0x00,
  0x00, 0x00, 0x00, 0x00, 0x00, 0x00, 0x00, 0x00, 0x00, 0x00, 0x00, 0x00,
  0x00, 0x00, 0x00, 0x00, 0x00, 0x00, 0x00, 0x00, 0x00, 0x00, 0x00, 0x00,
  0x00, 0x00, 0x00, 0x00, 0x00, 0x00, 0x00, 0x00, 0x00, 0x00, 0x00, 0x00,
  0x00, 0x00, 0x00, 0x00, 0x00, 0x00, 0x00, 0x00, 0x00, 0x00, 0x00, 0x00,
  0x00, 0x00, 0x00, 0x00, 0x00, 0x00, 0x00, 0x00, 0x00, 0x00, 0x00, 0x00,
  0x00, 0x00, 0x00, 0x00, 0x08, 0x00, 0x00, 0x00, 0x4c, 0xbb, 0x35, 0x3b,
  0xf5, 0xfe, 0x4d, 0x3b, 0xc7, 0x13, 0x51, 0x3b, 0x1d, 0x76, 0x01, 0x3b,
  0x8a, 0x5b, 0x43, 0x3b, 0x9c, 0x75, 0xf2, 0x3a, 0xf5, 0x9d, 0x53, 0x3b,
  0x39, 0x2b, 0x07, 0x3b, 0x13, 0x00, 0x00, 0x00, 0x74, 0x66, 0x6c, 0x2e,
  0x70, 0x73, 0x65, 0x75, 0x64, 0x6f, 0x5f, 0x71, 0x63, 0x6f, 0x6e, 0x73,
  0x74, 0x31, 0x30, 0x00, 0x02, 0x00, 0x00, 0x00, 0x08, 0x00, 0x00, 0x00,
  0x68, 0x00, 0x00, 0x00, 0x8a, 0xec, 0xff, 0xff, 0x00, 0x00, 0x00, 0x01,
  0x14, 0x00, 0x00, 0x00, 0x84, 0x00, 0x00, 0x00, 0x1b, 0x00, 0x00, 0x00,
  0x00, 0x00, 0x00, 0x02, 0x90, 0x00, 0x00, 0x00, 0x0c, 0xec, 0xff, 0xff,
  0x08, 0x00, 0x00, 0x00, 0x48, 0x00, 0x00, 0x00, 0x08, 0x00, 0x00, 0x00,
  0x00, 0x00, 0x00, 0x00, 0x00, 0x00, 0x00, 0x00, 0x00, 0x00, 0x00, 0x00,
  0x00, 0x00, 0x00, 0x00, 0x00, 0x00, 0x00, 0x00, 0x00, 0x00, 0x00, 0x00,
  0x00, 0x00, 0x00, 0x00, 0x00, 0x00, 0x00, 0x00, 0x00, 0x00, 0x00, 0x00,
  0x00, 0x00, 0x00, 0x00, 0x00, 0x00, 0x00, 0x00, 0x00, 0x00, 0x00, 0x00,
  0x00, 0x00, 0x00, 0x00, 0x00, 0x00, 0x00, 0x00, 0x00, 0x00, 0x00, 0x00,
  0x00, 0x00, 0x00, 0x00, 0x08, 0x00, 0x00, 0x00, 0xfc, 0x97, 0xf8, 0x36,
  0x82, 0xe4, 0x0c, 0x37, 0x07, 0x00, 0x0f, 0x37, 0xa4, 0x17, 0xb1, 0x36,
  0xce, 0x9d, 0x05, 0x37, 0x05, 0xd5, 0xa5, 0x36, 0xb9, 0xbc, 0x10, 0x37,
  0x51, 0xe6, 0xb8, 0x36, 0x12, 0x00, 0x00, 0x00, 0x74, 0x66, 0x6c, 0x2e,
  0x70, 0x73, 0x65, 0x75, 0x64, 0x6f, 0x5f, 0x71, 0x63, 0x6f, 0x6e, 0x73,
  0x74, 0x39, 0x00, 0x00, 0x01, 0x00, 0x00, 0x00, 0x08, 0x00, 0x00, 0x00,
  0x3a, 0xed, 0xff, 0xff, 0x00, 0x00, 0x00, 0x01, 0x14, 0x00, 0x00, 0x00,
  0x08, 0x05, 0x00, 0x00, 0x1a, 0x00, 0x00, 0x00, 0x00, 0x00, 0x00, 0x09,
  0x14, 0x05, 0x00, 0x00, 0xbc, 0xec, 0xff, 0xff, 0x08, 0x00, 0x00, 0x00,
  0x4c, 0x03, 0x00, 0x00, 0x68, 0x00, 0x00, 0x00, 0x00, 0x00, 0x00, 0x00,
  0x00, 0x00, 0x00, 0x00, 0x00, 0x00, 0x00, 0x00, 0x00, 0x00, 0x00, 0x00,
  0x00, 0x00, 0x00, 0x00, 0x00, 0x00, 0x00, 0x00, 0x00, 0x00, 0x00, 0x00,
  0x00, 0x00, 0x00, 0x00, 0x00, 0x00, 0x00, 0x00, 0x00, 0x00, 0x00, 0x00,
  0x00, 0x00, 0x00, 0x00, 0x00, 0x00, 0x00, 0x00, 0x00, 0x00, 0x00, 0x00,
  0x00, 0x00, 0x00, 0x00, 0x00, 0x00, 0x00, 0x00, 0x00, 0x00, 0x00, 0x00,
  0x00, 0x00, 0x00, 0x00, 0x00, 0x00, 0x00, 0x00, 0x00, 0x00, 0x00, 0x00,
  0x00, 0x00, 0x00, 0x00, 0x00, 0x00, 0x00, 0x00, 0x00, 0x00, 0x00, 0x00,
  0x00, 0x00, 0x00, 0x00, 0x00, 0x00, 0x00, 0x00, 0x00, 0x00, 0x00, 0x00,
  0x00, 0x00, 0x00, 0x00, 0x00, 0x00, 0x00, 0x00, 0x00, 0x00, 0x00, 0x00,
  0x00, 0x00, 0x00, 0x00, 0x00, 0x00, 0x00, 0x00, 0x00, 0x00, 0x00, 0x00,
  0x00, 0x00, 0x00, 0x00, 0x00, 0x00, 0x00, 0x00, 0x00, 0x00, 0x00, 0x00,
  0x00, 0x00, 0x00, 0x00, 0x00, 0x00, 0x00, 0x00, 0x00, 0x00, 0x00, 0x00,
  0x00, 0x00, 0x00, 0x00, 0x00, 0x00, 0x00, 0x00, 0x00, 0x00, 0x00, 0x00,
  0x00, 0x00, 0x00, 0x00, 0x00, 0x00, 0x00, 0x00, 0x00, 0x00, 0x00, 0x00,
  0x00, 0x00, 0x00, 0x00, 0x00, 0x00, 0x00, 0x00, 0x00, 0x00, 0x00, 0x00,
  0x00, 0x00, 0x00, 0x00, 0x00, 0x00, 0x00, 0x00, 0x00, 0x00, 0x00, 0x00,
  0x00, 0x00, 0x00, 0x00, 0x00, 0x00, 0x00, 0x00, 0x00, 0x00, 0x00, 0x00,
  0x00, 0x00, 0x00, 0x00, 0x00, 0x00, 0x00, 0x00, 0x00, 0x00, 0x00, 0x00,
  0x00, 0x00, 0x00, 0x00, 0x00, 0x00, 0x00, 0x00, 0x00, 0x00, 0x00, 0x00,
  0x00, 0x00, 0x00, 0x00, 0x00, 0x00, 0x00, 0x00, 0x00, 0x00, 0x00, 0x00,
  0x00, 0x00, 0x00, 0x00, 0x00, 0x00, 0x00, 0x00, 0x00, 0x00, 0x00, 0x00,
  0x00, 0x00, 0x00, 0x00, 0x00, 0x00, 0x00, 0x00, 0x00, 0x00, 0x00, 0x00,
  0x00, 0x00, 0x00, 0x00, 0x00, 0x00, 0x00, 0x00, 0x00, 0x00, 0x00, 0x00,
  0x00, 0x00, 0x00, 0x00, 0x00, 0x00, 0x00, 0x00, 0x00, 0x00, 0x00, 0x00,
  0x00, 0x00, 0x00, 0x00, 0x00, 0x00, 0x00, 0x00, 0x00, 0x00, 0x00, 0x00,
  0x00, 0x00, 0x00, 0x00, 0x00, 0x00, 0x00, 0x00, 0x00, 0x00, 0x00, 0x00,
  0x00, 0x00, 0x00, 0x00, 0x00, 0x00, 0x00, 0x00, 0x00, 0x00, 0x00, 0x00,
  0x00, 0x00, 0x00, 0x00, 0x00, 0x00, 0x00, 0x00, 0x00, 0x00, 0x00, 0x00,
  0x00, 0x00, 0x00, 0x00, 0x00, 0x00, 0x00, 0x00, 0x00, 0x00, 0x00, 0x00,
  0x00, 0x00, 0x00, 0x00, 0x00, 0x00, 0x00, 0x00, 0x00, 0x00, 0x00, 0x00,
  0x00, 0x00, 0x00, 0x00, 0x00, 0x00, 0x00, 0x00, 0x00, 0x00, 0x00, 0x00,
  0x00, 0x00, 0x00, 0x00, 0x00, 0x00, 0x00, 0x00, 0x00, 0x00, 0x00, 0x00,
  0x00, 0x00, 0x00, 0x00, 0x00, 0x00, 0x00, 0x00, 0x00, 0x00, 0x00, 0x00,
  0x00, 0x00, 0x00, 0x00, 0x00, 0x00, 0x00, 0x00, 0x00, 0x00, 0x00, 0x00,
  0x00, 0x00, 0x00, 0x00, 0x00, 0x00, 0x00, 0x00, 0x00, 0x00, 0x00, 0x00,
  0x00, 0x00, 0x00, 0x00, 0x00, 0x00, 0x00, 0x00, 0x00, 0x00, 0x00, 0x00,
  0x00, 0x00, 0x00, 0x00, 0x00, 0x00, 0x00, 0x00, 0x00, 0x00, 0x00, 0x00,
  0x00, 0x00, 0x00, 0x00, 0x00, 0x00, 0x00, 0x00, 0x00, 0x00, 0x00, 0x00,
  0x00, 0x00, 0x00, 0x00, 0x00, 0x00, 0x00, 0x00, 0x00, 0x00, 0x00, 0x00,
  0x00, 0x00, 0x00, 0x00, 0x00, 0x00, 0x00, 0x00, 0x00, 0x00, 0x00, 0x00,
  0x00, 0x00, 0x00, 0x00, 0x00, 0x00, 0x00, 0x00, 0x00, 0x00, 0x00, 0x00,
  0x00, 0x00, 0x00, 0x00, 0x00, 0x00, 0x00, 0x00, 0x00, 0x00, 0x00, 0x00,
  0x00, 0x00, 0x00, 0x00, 0x00, 0x00, 0x00, 0x00, 0x00, 0x00, 0x00, 0x00,
  0x00, 0x00, 0x00, 0x00, 0x00, 0x00, 0x00, 0x00, 0x00, 0x00, 0x00, 0x00,
  0x00, 0x00, 0x00, 0x00, 0x00, 0x00, 0x00, 0x00, 0x00, 0x00, 0x00, 0x00,
  0x00, 0x00, 0x00, 0x00, 0x00, 0x00, 0x00, 0x00, 0x00, 0x00, 0x00, 0x00,
  0x00, 0x00, 0x00, 0x00, 0x00, 0x00, 0x00, 0x00, 0x00, 0x00, 0x00, 0x00,
  0x00, 0x00, 0x00, 0x00, 0x00, 0x00, 0x00, 0x00, 0x00, 0x00, 0x00, 0x00,
  0x00, 0x00, 0x00, 0x00, 0x00, 0x00, 0x00, 0x00, 0x00, 0x00, 0x00, 0x00,
  0x00, 0x00, 0x00, 0x00, 0x00, 0x00, 0x00, 0x00, 0x00, 0x00, 0x00, 0x00,
  0x00, 0x00, 0x00, 0x00, 0x00, 0x00, 0x00, 0x00, 0x00, 0x00, 0x00, 0x00,
  0x00, 0x00, 0x00, 0x00, 0x00, 0x00, 0x00, 0x00, 0x00, 0x00, 0x00, 0x00,
  0x00, 0x00, 0x00, 0x00, 0x00, 0x00, 0x00, 0x00, 0x00, 0x00, 0x00, 0x00,
  0x00, 0x00, 0x00, 0x00, 0x00, 0x00, 0x00, 0x00, 0x00, 0x00, 0x00, 0x00,
  0x00, 0x00, 0x00, 0x00, 0x00, 0x00, 0x00, 0x00, 0x00, 0x00, 0x00, 0x00,
  0x00, 0x00, 0x00, 0x00, 0x00, 0x00, 0x00, 0x00, 0x00, 0x00, 0x00, 0x00,
  0x00, 0x00, 0x00, 0x00, 0x00, 0x00, 0x00, 0x00, 0x00, 0x00, 0x00, 0x00,
  0x00, 0x00, 0x00, 0x00, 0x00, 0x00, 0x00, 0x00, 0x00, 0x00, 0x00, 0x00,
  0x00, 0x00, 0x00, 0x00, 0x00, 0x00, 0x00, 0x00, 0x00, 0x00, 0x00, 0x00,
  0x00, 0x00, 0x00, 0x00, 0x00, 0x00, 0x00, 0x00, 0x00, 0x00, 0x00, 0x00,
  0x00, 0x00, 0x00, 0x00, 0x00, 0x00, 0x00, 0x00, 0x00, 0x00, 0x00, 0x00,
  0x00, 0x00, 0x00, 0x00, 0x00, 0x00, 0x00, 0x00, 0x00, 0x00, 0x00, 0x00,
  0x00, 0x00, 0x00, 0x00, 0x00, 0x00, 0x00, 0x00, 0x00, 0x00, 0x00, 0x00,
  0x00, 0x00, 0x00, 0x00, 0x00, 0x00, 0x00, 0x00, 0x00, 0x00, 0x00, 0x00,
  0x00, 0x00, 0x00, 0x00, 0x00, 0x00, 0x00, 0x00, 0x00, 0x00, 0x00, 0x00,
  0x00, 0x00, 0x00, 0x00, 0x00, 0x00, 0x00, 0x00, 0x00, 0x00, 0x00, 0x00,
  0x00, 0x00, 0x00, 0x00, 0x00, 0x00, 0x00, 0x00, 0x00, 0x00, 0x00, 0x00,
  0x00, 0x00, 0x00, 0x00, 0x00, 0x00, 0x00, 0x00, 0x00, 0x00, 0x00, 0x00,
  0x00, 0x00, 0x00, 0x00, 0x00, 0x00, 0x00, 0x00, 0x00, 0x00, 0x00, 0x00,
  0x00, 0x00, 0x00, 0x00, 0x68, 0x00, 0x00, 0x00, 0xf4, 0x42, 0xe0, 0x3a,
  0xcc, 0x57, 0xa5, 0x3a, 0x1b, 0xce, 0x07, 0x3b, 0xc2, 0xf5, 0xa3, 0x3a,
  0xb1, 0x24, 0xf0, 0x3a, 0x65, 0xbb, 0x95, 0x3a, 0x48, 0x38, 0xdd, 0x3a,
  0x97, 0xd5, 0xb9, 0x3a, 0xae, 0xba, 0x96, 0x3a, 0x82, 0x5c, 0xf2, 0x3a,
  0x74, 0x08, 0x0d, 0x3b, 0xc9, 0x07, 0x12, 0x3b, 0x09, 0x58, 0xfc, 0x3a,
  0xd8, 0xe1, 0xd8, 0x3a, 0xd0, 0x1c, 0xb2, 0x3a, 0x22, 0xd5, 0xdd, 0x3a,
  0xe3, 0x6b, 0x02, 0x3b, 0x86, 0xa3, 0xde, 0x3a, 0xec, 0x88, 0xfd, 0x3a,
  0x3a, 0x70, 0xfe, 0x3a, 0x02, 0x18, 0xc8, 0x3a, 0xe9, 0x95, 0xc2, 0x3a,
  0x5a, 0x0d, 0xf9, 0x3a, 0x2e, 0x68, 0x0e, 0x3b, 0x08, 0x4a, 0x67, 0x3a,
  0xab, 0xa8, 0x0e, 0x3b, 0x34, 0x5d, 0xd9, 0x3a, 0x6d, 0x8c, 0xe4, 0x3a,
  0x60, 0x54, 0xa2, 0x3a, 0xd7, 0xf4, 0xe8, 0x3a, 0x15, 0x36, 0xdc, 0x3a,
  0xdd, 0xab, 0xe9, 0x3a, 0x34, 0x4e, 0xf3, 0x3a, 0xb2, 0x7d, 0x16, 0x3b,
  0x23, 0xca, 0xe4, 0x3a, 0x86, 0x8a, 0xba, 0x3a, 0xea, 0x6b, 0x8f, 0x3a,
  0x18, 0x31, 0xe4, 0x3a, 0x71, 0x03, 0xec, 0x3a, 0xa1, 0xc5, 0x09, 0x3b,
  0x6e, 0x21, 0xbe, 0x3a, 0xb8, 0xe2, 0xef, 0x3a, 0xab, 0x26, 0xec, 0x3a,
  0xdf, 0x80, 0xe4, 0x3a, 0xd6, 0x11, 0xd9, 0x3a, 0x65, 0xa0, 0xe6, 0x3a,
  0xcd, 0xba, 0xe0, 0x3a, 0x5c, 0x40, 0xff, 0x3a, 0x83, 0xb7, 0xcd, 0x3a,
  0xa4, 0x36, 0x96, 0x3a, 0x2e, 0x35, 0xb0, 0x3a, 0xf6, 0x87, 0xd0, 0x3a,
  0x6c, 0x8c, 0xd2, 0x3a, 0x89, 0xee, 0xe6, 0x3a, 0x6f, 0xa3, 0xc3, 0x3a,
  0xd1, 0x1b, 0xcd, 0x3a, 0xdc, 0x71, 0xb0, 0x3a, 0x5c, 0xaa, 0xe5, 0x3a,
  0xba, 0x78, 0xe7, 0x3a, 0xbd, 0xd9, 0x9d, 0x3a, 0xf1, 0xdb, 0xf5, 0x3a,
  0x61, 0x2a, 0xdd, 0x3a, 0x14, 0x06, 0xe4, 0x3a, 0xb5, 0x54, 0xf9, 0x3a,
  0xf2, 0x42, 0x0d, 0x3b, 0x20, 0xf6, 0xec, 0x3a, 0x1a, 0xe5, 0x0a, 0x3b,
  0xc3, 0x22, 0x9b, 0x3a, 0xb8, 0x2c, 0x05, 0x3b, 0x74, 0xd2, 0xd5, 0x3a,
  0x64, 0x83, 0xed, 0x3a, 0x6f, 0xc0, 0xe3, 0x3a, 0xa9, 0xd6, 0x11, 0x3b,
  0xf5, 0xdc, 0xdc, 0x3a, 0x31, 0x28, 0xa3, 0x3a, 0xe5, 0xfb, 0xc4, 0x3a,
  0x1c, 0xaa, 0xec, 0x3a, 0x9a, 0x45, 0xcf, 0x3a, 0x63, 0x81, 0xf8, 0x3a,
  0x53, 0x3c, 0xdd, 0x3a, 0x22, 0xd3, 0xab, 0x3a, 0xac, 0x07, 0x1a, 0x3b,
  0x16, 0x44, 0xdd, 0x3a, 0xa9, 0x32, 0xc4, 0x3a, 0x33, 0x9e, 0xe3, 0x3a,
  0x03, 0x2c, 0x9d, 0x3a, 0x65, 0x1b, 0xc7, 0x3a, 0xdb, 0xa6, 0xf4, 0x3a,
  0xb0, 0x12, 0xdb, 0x3a, 0x11, 0x0b, 0xe6, 0x3a, 0x5f, 0x5c, 0xc0, 0x3a,
  0x7e, 0xc3, 0xe5, 0x3a, 0xd8, 0x50, 0xbd, 0x3a, 0x31, 0x25, 0xd0, 0x3a,
  0x01, 0xe1, 0xeb, 0x3a, 0x15, 0xfd, 0x09, 0x3b, 0x3f, 0x93, 0xa9, 0x3a,
  0x1c, 0xd9, 0xce, 0x3a, 0xac, 0xbb, 0xc3, 0x3a, 0x2e, 0x85, 0xe5, 0x3a,
  0x29, 0xc3, 0x0c, 0x3b, 0x65, 0x52, 0x0f, 0x3b, 0x0a, 0x88, 0x32, 0x3b,
  0xbd, 0xe0, 0xef, 0x3a, 0x12, 0x00, 0x00, 0x00, 0x74, 0x66, 0x6c, 0x2e,
  0x70, 0x73, 0x65, 0x75, 0x64, 0x6f, 0x5f, 0x71, 0x63, 0x6f, 0x6e, 0x73,
  0x74, 0x38, 0x00, 0x00, 0x02, 0x00, 0x00, 0x00, 0x68, 0x00, 0x00, 0x00,
  0x08, 0x00, 0x00, 0x00, 0x72, 0xf2, 0xff, 0xff, 0x00, 0x00, 0x00, 0x01,
  0x14, 0x00, 0x00, 0x00, 0x04, 0x05, 0x00, 0x00, 0x19, 0x00, 0x00, 0x00,
  0x00, 0x00, 0x00, 0x02, 0x10, 0x05, 0x00, 0x00, 0xf4, 0xf1, 0xff, 0xff,
  0x08, 0x00, 0x00, 0x00, 0x48, 0x03, 0x00, 0x00, 0x68, 0x00, 0x00, 0x00,
  0x00, 0x00, 0x00, 0x00, 0x00, 0x00, 0x00, 0x00, 0x00, 0x00, 0x00, 0x00,
  0x00, 0x00, 0x00, 0x00, 0x00, 0x00, 0x00, 0x00, 0x00, 0x00, 0x00, 0x00,
  0x00, 0x00, 0x00, 0x00, 0x00, 0x00, 0x00, 0x00, 0x00, 0x00, 0x00, 0x00,
  0x00, 0x00, 0x00, 0x00, 0x00, 0x00, 0x00, 0x00, 0x00, 0x00, 0x00, 0x00,
  0x00, 0x00, 0x00, 0x00, 0x00, 0x00, 0x00, 0x00, 0x00, 0x00, 0x00, 0x00,
  0x00, 0x00, 0x00, 0x00, 0x00, 0x00, 0x00, 0x00, 0x00, 0x00, 0x00, 0x00,
  0x00, 0x00, 0x00, 0x00, 0x00, 0x00, 0x00, 0x00, 0x00, 0x00, 0x00, 0x00,
  0x00, 0x00, 0x00, 0x00, 0x00, 0x00, 0x00, 0x00, 0x00, 0x00, 0x00, 0x00,
  0x00, 0x00, 0x00, 0x00, 0x00, 0x00, 0x00, 0x00, 0x00, 0x00, 0x00, 0x00,
  0x00, 0x00, 0x00, 0x00, 0x00, 0x00, 0x00, 0x00, 0x00, 0x00, 0x00, 0x00,
  0x00, 0x00, 0x00, 0x00, 0x00, 0x00, 0x00, 0x00, 0x00, 0x00, 0x00, 0x00,
  0x00, 0x00, 0x00, 0x00, 0x00, 0x00, 0x00, 0x00, 0x00, 0x00, 0x00, 0x00,
  0x00, 0x00, 0x00, 0x00, 0x00, 0x00, 0x00, 0x00, 0x00, 0x00, 0x00, 0x00,
  0x00, 0x00, 0x00, 0x00, 0x00, 0x00, 0x00, 0x00, 0x00, 0x00, 0x00, 0x00,
  0x00, 0x00, 0x00, 0x00, 0x00, 0x00, 0x00, 0x00, 0x00, 0x00, 0x00, 0x00,
  0x00, 0x00, 0x00, 0x00, 0x00, 0x00, 0x00, 0x00, 0x00, 0x00, 0x00, 0x00,
  0x00, 0x00, 0x00, 0x00, 0x00, 0x00, 0x00, 0x00, 0x00, 0x00, 0x00, 0x00,
  0x00, 0x00, 0x00, 0x00, 0x00, 0x00, 0x00, 0x00, 0x00, 0x00, 0x00, 0x00,
